{
  "version": "1.0",
  "truncation": {
    "direction": "Right",
    "max_length": 512,
    "strategy": "LongestFirst",
    "stride": 0
  },
  "padding": {
    "strategy": "BatchLongest",
    "direction": "Right",
    "pad_to_multiple_of": null,
    "pad_id": 0,
    "pad_type_id": 0,
    "pad_token": "<pad>"
  },
  "added_tokens": [
    {
      "id": 0,
      "content": "<pad>",
      "single_word": false,
      "lstrip": false,
      "rstrip": false,
      "normalized": false,
      "special": true
    },
    {
      "id": 1,
      "content": "<unk>",
      "single_word": false,
      "lstrip": false,
      "rstrip": false,
      "normalized": false,
      "special": true
    },
    {
      "id": 2,
      "content": "<eos>",
      "single_word": false,
      "lstrip": false,
      "rstrip": false,
      "normalized": false,
      "special": true
    },
    {
      "id": 3,
      "content": "<s>",
      "single_word": false,
      "lstrip": false,
      "rstrip": false,
      "normalized": false,
      "special": true
    }
  ],
  "normalizer": null,
  "pre_tokenizer": {
    "type": "Whitespace"
  },
  "post_processor": null,
  "decoder": null,
  "model": {
    "type": "BPE",
    "dropout": null,
    "unk_token": "<unk>",
    "continuing_subword_prefix": null,
    "end_of_word_suffix": null,
    "fuse_unk": false,
    "byte_fallback": false,
    "ignore_merges": false,
    "vocab": {
      "<pad>": 0,
      "<unk>": 1,
      "<eos>": 2,
      "<s>": 3,
      "!": 4,
      "\"": 5,
      "#": 6,
      "$": 7,
      "%": 8,
      "&": 9,
      "'": 10,
      "(": 11,
      ")": 12,
      "*": 13,
      ",": 14,
      "-": 15,
      ".": 16,
      "/": 17,
      "0": 18,
      "1": 19,
      "2": 20,
      "3": 21,
      "4": 22,
      "5": 23,
      "6": 24,
      "7": 25,
      "8": 26,
      "9": 27,
      ":": 28,
      ";": 29,
      "?": 30,
      "@": 31,
      "A": 32,
      "B": 33,
      "C": 34,
      "D": 35,
      "E": 36,
      "F": 37,
      "G": 38,
      "H": 39,
      "I": 40,
      "J": 41,
      "K": 42,
      "L": 43,
      "M": 44,
      "N": 45,
      "O": 46,
      "P": 47,
      "Q": 48,
      "R": 49,
      "S": 50,
      "T": 51,
      "U": 52,
      "V": 53,
      "W": 54,
      "X": 55,
      "Y": 56,
      "[": 57,
      "]": 58,
      "^": 59,
      "_": 60,
      "a": 61,
      "b": 62,
      "c": 63,
      "d": 64,
      "e": 65,
      "f": 66,
      "g": 67,
      "h": 68,
      "i": 69,
      "j": 70,
      "k": 71,
      "l": 72,
      "m": 73,
      "n": 74,
      "o": 75,
      "p": 76,
      "q": 77,
      "r": 78,
      "s": 79,
      "t": 80,
      "u": 81,
      "v": 82,
      "w": 83,
      "x": 84,
      "y": 85,
      "z": 86,
      "{": 87,
      "}": 88,
      "~": 89,
      "©": 90,
      "²": 91,
      "Ø": 92,
      "é": 93,
      "í": 94,
      "ā": 95,
      "Š": 96,
      "ד": 97,
      "ו": 98,
      "ח": 99,
      "ק": 100,
      "ר": 101,
      "ש": 102,
      "–": 103,
      "—": 104,
      "‘": 105,
      "’": 106,
      "“": 107,
      "”": 108,
      "…": 109,
      "": 110,
      "th": 111,
      "in": 112,
      "re": 113,
      "the": 114,
      "ed": 115,
      "an": 116,
      "er": 117,
      "on": 118,
      "ou": 119,
      "ing": 120,
      "at": 121,
      "en": 122,
      "st": 123,
      "to": 124,
      "as": 125,
      "or": 126,
      "is": 127,
      "of": 128,
      "ar": 129,
      "al": 130,
      "he": 131,
      "it": 132,
      "me": 133,
      "le": 134,
      "and": 135,
      "my": 136,
      "se": 137,
      "ce": 138,
      "ow": 139,
      "de": 140,
      "be": 141,
      "ly": 142,
      "li": 143,
      "ld": 144,
      "ch": 145,
      "was": 146,
      "wi": 147,
      "om": 148,
      "ion": 149,
      "ve": 150,
      "ad": 151,
      "ent": 152,
      "gh": 153,
      "ll": 154,
      "es": 155,
      "ic": 156,
      "ur": 157,
      "un": 158,
      "ut": 159,
      "ir": 160,
      "you": 161,
      "with": 162,
      "for": 163,
      "ac": 164,
      "ver": 165,
      "that": 166,
      "id": 167,
      "we": 168,
      "oun": 169,
      "sh": 170,
      "wh": 171,
      "red": 172,
      "ri": 173,
      "The": 174,
      "his": 175,
      "ght": 176,
      "ag": 177,
      "im": 178,
      "ro": 179,
      "su": 180,
      "ap": 181,
      "ound": 182,
      "la": 183,
      "ould": 184,
      "ke": 185,
      "no": 186,
      "con": 187,
      "all": 188,
      "fe": 189,
      "ne": 190,
      "res": 191,
      "lo": 192,
      "pe": 193,
      "am": 194,
      "ation": 195,
      "so": 196,
      "ab": 197,
      "her": 198,
      "man": 199,
      "this": 200,
      "ate": 201,
      "od": 202,
      "ti": 203,
      "had": 204,
      "fr": 205,
      ",”": 206,
      "em": 207,
      "ex": 208,
      "ain": 209,
      "wor": 210,
      "ore": 211,
      "ss": 212,
      "one": 213,
      "il": 214,
      "ge": 215,
      "ct": 216,
      "ter": 217,
      "tr": 218,
      "ity": 219,
      "but": 220,
      "po": 221,
      "us": 222,
      "vo": 223,
      "lf": 224,
      "if": 225,
      "out": 226,
      "qu": 227,
      "iz": 228,
      "sa": 229,
      "ma": 230,
      "from": 231,
      "could": 232,
      "ha": 233,
      "ind": 234,
      "our": 235,
      "are": 236,
      "gr": 237,
      "ul": 238,
      "com": 239,
      "ant": 240,
      "te": 241,
      "It": 242,
      "har": 243,
      "ice": 244,
      "ust": 245,
      "end": 246,
      "per": 247,
      "like": 248,
      "ther": 249,
      "not": 250,
      "now": 251,
      "ight": 252,
      "king": 253,
      "mo": 254,
      "ay": 255,
      "str": 256,
      "op": 257,
      "by": 258,
      "et": 259,
      "ence": 260,
      "ven": 261,
      "ower": 262,
      "ack": 263,
      "voice": 264,
      "ire": 265,
      "ca": 266,
      "fore": 267,
      "thing": 268,
      "ated": 269,
      "ard": 270,
      "old": 271,
      "self": 272,
      "ough": 273,
      "He": 274,
      "ill": 275,
      "ked": 276,
      "power": 277,
      "she": 278,
      "into": 279,
      "si": 280,
      "mana": 281,
      "ever": 282,
      "ted": 283,
      "your": 284,
      "have": 285,
      "ace": 286,
      "As": 287,
      "him": 288,
      "sp": 289,
      "ess": 290,
      "said": 291,
      "Th": 292,
      "bl": 293,
      "co": 294,
      "pro": 295,
      "ist": 296,
      "ous": 297,
      "world": 298,
      ".”": 299,
      "up": 300,
      "ance": 301,
      "lie": 302,
      "were": 303,
      "time": 304,
      "ach": 305,
      "some": 306,
      "do": 307,
      "ting": 308,
      "ure": 309,
      "here": 310,
      "own": 311,
      "before": 312,
      "less": 313,
      "ine": 314,
      "air": 315,
      "el": 316,
      "pres": 317,
      "um": 318,
      "ep": 319,
      "rem": 320,
      "will": 321,
      "new": 322,
      "ord": 323,
      "ast": 324,
      "over": 325,
      "can": 326,
      "ment": 327,
      "pla": 328,
      "even": 329,
      "real": 330,
      "ite": 331,
      "seem": 332,
      "act": 333,
      "led": 334,
      "ry": 335,
      "ong": 336,
      "spe": 337,
      "their": 338,
      "ish": 339,
      "Liz": 340,
      "them": 341,
      "Liza": 342,
      "But": 343,
      "--": 344,
      "br": 345,
      "sur": 346,
      "Char": 347,
      "ath": 348,
      "would": 349,
      "able": 350,
      "way": 351,
      "they": 352,
      "?”": 353,
      "ned": 354,
      "who": 355,
      "Charlie": 356,
      "den": 357,
      "did": 358,
      "ig": 359,
      "pl": 360,
      "att": 361,
      "ating": 362,
      "what": 363,
      "Her": 364,
      "know": 365,
      "sc": 366,
      "cont": 367,
      "ey": 368,
      "ren": 369,
      "der": 370,
      "use": 371,
      "int": 372,
      ",\"": 373,
      "ies": 374,
      "ward": 375,
      "irst": 376,
      "ds": 377,
      "ort": 378,
      "In": 379,
      "My": 380,
      "ped": 381,
      "ple": 382,
      "ck": 383,
      "tur": 384,
      "ue": 385,
      "ers": 386,
      "art": 387,
      "agic": 388,
      "We": 389,
      "myself": 390,
      "sm": 391,
      "ser": 392,
      "just": 393,
      "more": 394,
      "pre": 395,
      "vi": 396,
      "ood": 397,
      "pr": 398,
      "thr": 399,
      "there": 400,
      "around": 401,
      "age": 402,
      "An": 403,
      "any": 404,
      "ves": 405,
      "life": 406,
      "hand": 407,
      "ally": 408,
      "suit": 409,
      "eyes": 410,
      "dis": 411,
      "eer": 412,
      "about": 413,
      "ble": 414,
      "cre": 415,
      "ft": 416,
      "low": 417,
      "ared": 418,
      "ness": 419,
      "seemed": 420,
      "mon": 421,
      "mat": 422,
      "back": 423,
      "av": 424,
      "ho": 425,
      "hound": 426,
      "ud": 427,
      "ought": 428,
      "dom": 429,
      "est": 430,
      "ra": 431,
      "ile": 432,
      "sed": 433,
      "ta": 434,
      "ursuit": 435,
      "sen": 436,
      "imp": 437,
      "fo": 438,
      "ful": 439,
      "magic": 440,
      "other": 441,
      "ange": 442,
      "loo": 443,
      "stru": 444,
      "ush": 445,
      "resh": 446,
      "form": 447,
      "words": 448,
      "pt": 449,
      "ying": 450,
      "its": 451,
      "cho": 452,
      "again": 453,
      "through": 454,
      "Shar": 455,
      "Teer": 456,
      "how": 457,
      "ved": 458,
      "stand": 459,
      "Sharma": 460,
      "Teerth": 461,
      "face": 462,
      "His": 463,
      "Pursuit": 464,
      "ling": 465,
      "ond": 466,
      "every": 467,
      "Thresh": 468,
      "Threshold": 469,
      "Wh": 470,
      "see": 471,
      "being": 472,
      "amp": 473,
      "ot": 474,
      "sit": 475,
      "ang": 476,
      "ci": 477,
      "di": 478,
      "only": 479,
      "How": 480,
      "found": 481,
      "hu": 482,
      "First": 483,
      "bo": 484,
      "car": 485,
      "off": 486,
      "bod": 487,
      "sing": 488,
      "been": 489,
      "ions": 490,
      "didn": 491,
      ".\"": 492,
      "gu": 493,
      "lt": 494,
      "might": 495,
      "light": 496,
      "human": 497,
      "Lord": 498,
      "cr": 499,
      "ga": 500,
      "iver": 501,
      "ious": 502,
      "knew": 503,
      "mom": 504,
      "sk": 505,
      "ined": 506,
      "read": 507,
      "ark": 508,
      "appe": 509,
      "used": 510,
      "moment": 511,
      "God": 512,
      "cle": 513,
      "cap": 514,
      "vel": 515,
      "need": 516,
      "Elf": 517,
      "down": 518,
      "war": 519,
      "then": 520,
      "under": 521,
      "So": 522,
      "fin": 523,
      "thought": 524,
      "ona": 525,
      "Hero": 526,
      "cur": 527,
      "ith": 528,
      "tain": 529,
      "than": 530,
      "ans": 531,
      "too": 532,
      "hel": 533,
      "wasn": 534,
      "right": 535,
      "Elfona": 536,
      "cent": 537,
      "fter": 538,
      "wall": 539,
      "enc": 540,
      "stood": 541,
      "tor": 542,
      "force": 543,
      "ized": 544,
      "couldn": 545,
      "ak": 546,
      "fi": 547,
      "ose": 548,
      "ched": 549,
      "hero": 550,
      "something": 551,
      "This": 552,
      "With": 553,
      "You": 554,
      "mind": 555,
      "son": 556,
      "sion": 557,
      "ise": 558,
      "when": 559,
      "side": 560,
      "cl": 561,
      "dr": 562,
      "hap": 563,
      "long": 564,
      "vamp": 565,
      "ering": 566,
      "within": 567,
      "----": 568,
      "pli": 569,
      "inst": 570,
      "lim": 571,
      "lled": 572,
      "felt": 573,
      "cla": 574,
      "ear": 575,
      "vis": 576,
      "yet": 577,
      "Well": 578,
      "However": 579,
      "?\"": 580,
      "call": 581,
      "cate": 582,
      "ged": 583,
      "ip": 584,
      "ph": 585,
      "toward": 586,
      "ical": 587,
      "turned": 588,
      "je": 589,
      "must": 590,
      "ob": 591,
      "ping": 592,
      "arch": 593,
      "sum": 594,
      "sure": 595,
      "cause": 596,
      "denly": 597,
      "..": 598,
      "clo": 599,
      "ide": 600,
      "land": 601,
      "tone": 602,
      "where": 603,
      "ase": 604,
      "left": 605,
      "beg": 606,
      "why": 607,
      "ction": 608,
      "made": 609,
      "And": 610,
      "body": 611,
      "ive": 612,
      "asked": 613,
      "ained": 614,
      "ached": 615,
      "If": 616,
      "gre": 617,
      "ning": 618,
      "uth": 619,
      "ary": 620,
      "aced": 621,
      "cted": 622,
      "ground": 623,
      "most": 624,
      "plan": 625,
      "She": 626,
      "aw": 627,
      "che": 628,
      "mand": 629,
      "ol": 630,
      "tit": 631,
      "ving": 632,
      "ze": 633,
      "aring": 634,
      "exist": 635,
      "get": 636,
      "qui": 637,
      "sense": 638,
      "ced": 639,
      "don": 640,
      "ef": 641,
      "ni": 642,
      "port": 643,
      "tri": 644,
      "ys": 645,
      "yst": 646,
      "ened": 647,
      "resp": 648,
      "tered": 649,
      "contin": 650,
      "bar": 651,
      "cer": 652,
      "cti": 653,
      "hal": 654,
      "ial": 655,
      "though": 656,
      "ana": 657,
      "ching": 658,
      "univer": 659,
      "should": 660,
      "abil": 661,
      "ending": 662,
      "ished": 663,
      "angel": 664,
      "plied": 665,
      "bre": 666,
      "ich": 667,
      "min": 668,
      "nat": 669,
      "let": 670,
      "very": 671,
      "conf": 672,
      "lood": 673,
      "person": 674,
      "Hecate": 675,
      "presence": 676,
      "appeared": 677,
      "lit": 678,
      "os": 679,
      "ued": 680,
      "vid": 681,
      "those": 682,
      "ont": 683,
      "once": 684,
      "step": 685,
      "head": 686,
      "level": 687,
      "llow": 688,
      "which": 689,
      "riend": 690,
      "cast": 691,
      "friend": 692,
      "ie": 693,
      "bey": 694,
      "quest": 695,
      "title": 696,
      "go": 697,
      "med": 698,
      "ty": 699,
      "ten": 700,
      "want": 701,
      "reve": 702,
      "replied": 703,
      "ass": 704,
      "room": 705,
      "feel": 706,
      "front": 707,
      "exp": 708,
      "come": 709,
      "looked": 710,
      "universe": 711,
      "dire": 712,
      "dark": 713,
      "has": 714,
      "ash": 715,
      "itself": 716,
      "cond": 717,
      "expla": 718,
      "using": 719,
      "illed": 720,
      "against": 721,
      "began": 722,
      "00": 723,
      "Be": 724,
      "ded": 725,
      "fre": 726,
      "thre": 727,
      "ene": 728,
      "ster": 729,
      "still": 730,
      "bet": 731,
      "because": 732,
      "ick": 733,
      "ict": 734,
      "well": 735,
      "summon": 736,
      "ctive": 737,
      "coun": 738,
      "hind": 739,
      "ible": 740,
      "pri": 741,
      "ual": 742,
      "wa": 743,
      "erry": 744,
      "mem": 745,
      "They": 746,
      "such": 747,
      "gest": 748,
      "pos": 749,
      "comp": 750,
      "place": 751,
      "continued": 752,
      "beyond": 753,
      "De": 754,
      "Jerry": 755,
      "after": 756,
      "gth": 757,
      "swi": 758,
      "sil": 759,
      "wo": 760,
      "rest": 761,
      "behind": 762,
      "came": 763,
      "explained": 764,
      "bur": 765,
      "batt": 766,
      "blood": 767,
      "cal": 768,
      "gy": 769,
      "gen": 770,
      "god": 771,
      "igh": 772,
      "ming": 773,
      "na": 774,
      "round": 775,
      "ught": 776,
      "thin": 777,
      "heart": 778,
      "ities": 779,
      "mere": 780,
      "agon": 781,
      "appro": 782,
      "ations": 783,
      "tra": 784,
      "command": 785,
      "sig": 786,
      "Then": 787,
      "fully": 788,
      "clear": 789,
      "towards": 790,
      "bu": 791,
      "ber": 792,
      "ead": 793,
      "ili": 794,
      "mu": 795,
      "wind": 796,
      "ref": 797,
      "these": 798,
      "ons": 799,
      "ator": 800,
      "stren": 801,
      "ority": 802,
      "des": 803,
      "weight": 804,
      "white": 805,
      "rif": 806,
      "sud": 807,
      "move": 808,
      "standing": 809,
      "What": 810,
      "ready": 811,
      "quired": 812,
      "Yet": 813,
      "bed": 814,
      "cut": 815,
      "city": 816,
      "day": 817,
      "dist": 818,
      "find": 819,
      "fight": 820,
      "first": 821,
      "hold": 822,
      "slow": 823,
      "another": 824,
      "meet": 825,
      "set": 826,
      "rip": 827,
      "lay": 828,
      "last": 829,
      "tiv": 830,
      "trying": 831,
      "pot": 832,
      "vol": 833,
      "void": 834,
      "someone": 835,
      "contro": 836,
      "foc": 837,
      "situ": 838,
      "humans": 839,
      "took": 840,
      "battle": 841,
      "strength": 842,
      "ff": 843,
      "fl": 844,
      "pu": 845,
      "sin": 846,
      "ye": 847,
      "enough": 848,
      "arm": 849,
      "sess": 850,
      "dest": 851,
      "deep": 852,
      "ics": 853,
      "ift": 854,
      "izing": 855,
      "kingdom": 856,
      "ople": 857,
      "elves": 858,
      "surround": 859,
      "ushed": 860,
      "thoughts": 861,
      "happ": 862,
      "existence": 863,
      "cor": 864,
      "ctor": 865,
      "echo": 866,
      "gl": 867,
      "high": 868,
      "ires": 869,
      "mi": 870,
      "part": 871,
      "wit": 872,
      "iting": 873,
      "cept": 874,
      "death": 875,
      "lic": 876,
      "ently": 877,
      "entire": 878,
      "sup": 879,
      "allen": 880,
      "never": 881,
      "people": 882,
      "grand": 883,
      "grant": 884,
      "door": 885,
      "vampire": 886,
      "reveal": 887,
      "situation": 888,
      "King": 889,
      "ered": 890,
      "fate": 891,
      "fig": 892,
      "filled": 893,
      "glow": 894,
      "ken": 895,
      "ures": 896,
      "vent": 897,
      "held": 898,
      "dex": 899,
      "while": 900,
      "imed": 901,
      "ross": 902,
      "nothing": 903,
      "feat": 904,
      "saw": 905,
      "ended": 906,
      "black": 907,
      "play": 908,
      "aving": 909,
      "hope": 910,
      "anger": 911,
      "respond": 912,
      "nature": 913,
      "ade": 914,
      "away": 915,
      "cour": 916,
      "dro": 917,
      "dif": 918,
      "fun": 919,
      "hil": 920,
      "mid": 921,
      "path": 922,
      "two": 923,
      "inter": 924,
      "reg": 925,
      "stop": 926,
      "ask": 927,
      "deter": 928,
      "belie": 929,
      "ters": 930,
      "peri": 931,
      "powers": 932,
      "That": 933,
      "realized": 934,
      "speed": 935,
      "spell": 936,
      "both": 937,
      "help": 938,
      "phys": 939,
      "much": 940,
      "No": 941,
      "Sud": 942,
      "Tit": 943,
      "aur": 944,
      "cat": 945,
      "fur": 946,
      "ron": 947,
      "sun": 948,
      "syst": 949,
      "trem": 950,
      "van": 951,
      "val": 952,
      "vine": 953,
      "xt": 954,
      "inquired": 955,
      "ret": 956,
      "ingly": 957,
      "ison": 958,
      "leg": 959,
      "second": 960,
      "uty": 961,
      "fect": 962,
      "ize": 963,
      "action": 964,
      "rent": 965,
      "ortal": 966,
      "ency": 967,
      "--------": 968,
      "uthority": 969,
      "certain": 970,
      "possess": 971,
      "Kingdom": 972,
      "Suddenly": 973,
      "system": 974,
      "!”": 975,
      "bal": 976,
      "eld": 977,
      "far": 978,
      "mortal": 979,
      "oc": 980,
      "pa": 981,
      "par": 982,
      "ude": 983,
      "wat": 984,
      "whel": 985,
      "iness": 986,
      "ream": 987,
      "stri": 988,
      "tory": 989,
      "dec": 990,
      "without": 991,
      "forward": 992,
      "ween": 993,
      "emp": 994,
      "poss": 995,
      "ledge": 996,
      "ways": 997,
      "turn": 998,
      "smile": 999,
      "anything": 1000,
      "take": 1001,
      "struction": 1002,
      "gaze": 1003,
      "ears": 1004,
      "nihil": 1005,
      "castle": 1006,
      "Before": 1007,
      "between": 1008,
      "aura": 1009,
      "aking": 1010,
      "fu": 1011,
      "ging": 1012,
      "ild": 1013,
      "pun": 1014,
      "rad": 1015,
      "sor": 1016,
      "sac": 1017,
      "sight": 1018,
      "simp": 1019,
      "ured": 1020,
      "won": 1021,
      "heard": 1022,
      "met": 1023,
      "owing": 1024,
      "fort": 1025,
      "sol": 1026,
      "sold": 1027,
      "pose": 1028,
      "comple": 1029,
      "strong": 1030,
      "upon": 1031,
      "remind": 1032,
      "overwhel": 1033,
      "reality": 1034,
      "ign": 1035,
      "divine": 1036,
      "dragon": 1037,
      "haps": 1038,
      "vision": 1039,
      "half": 1040,
      "ability": 1041,
      "swift": 1042,
      "silence": 1043,
      "suddenly": 1044,
      "**": 1045,
      "For": 1046,
      "bla": 1047,
      "cas": 1048,
      "cir": 1049,
      "cul": 1050,
      "jo": 1051,
      "kes": 1052,
      "sound": 1053,
      "tou": 1054,
      "wr": 1055,
      "reas": 1056,
      "ings": 1057,
      "ener": 1058,
      "alth": 1059,
      "always": 1060,
      "les": 1061,
      "leaving": 1062,
      "dead": 1063,
      "unti": 1064,
      "aged": 1065,
      "pect": 1066,
      "empt": 1067,
      "iled": 1068,
      "illi": 1069,
      "make": 1070,
      "antly": 1071,
      "stron": 1072,
      "open": 1073,
      "sive": 1074,
      "attack": 1075,
      "follow": 1076,
      "looking": 1077,
      "sky": 1078,
      "vampires": 1079,
      "called": 1080,
      "control": 1081,
      "until": 1082,
      "Des": 1083,
      "bro": 1084,
      "each": 1085,
      "fam": 1086,
      "kill": 1087,
      "sla": 1088,
      "wer": 1089,
      "zed": 1090,
      "inside": 1091,
      "almost": 1092,
      "mean": 1093,
      "cess": 1094,
      "owed": 1095,
      "best": 1096,
      "activ": 1097,
      "ket": 1098,
      "fear": 1099,
      "soon": 1100,
      "ately": 1101,
      "que": 1102,
      "coming": 1103,
      "ants": 1104,
      "space": 1105,
      "rather": 1106,
      "ushing": 1107,
      "everything": 1108,
      "...": 1109,
      "question": 1110,
      "radi": 1111,
      "cu": 1112,
      "cy": 1113,
      "du": 1114,
      "fa": 1115,
      "gi": 1116,
      "hum": 1117,
      "ier": 1118,
      "ios": 1119,
      "lord": 1120,
      "mer": 1121,
      "mar": 1122,
      "mal": 1123,
      "sat": 1124,
      "tion": 1125,
      "uly": 1126,
      "vic": 1127,
      "yal": 1128,
      "rein": 1129,
      "reached": 1130,
      "ors": 1131,
      "ory": 1132,
      "ited": 1133,
      "dep": 1134,
      "desp": 1135,
      "deser": 1136,
      "char": 1137,
      "ung": 1138,
      "vers": 1139,
      "shif": 1140,
      "whis": 1141,
      "rim": 1142,
      "reson": 1143,
      "log": 1144,
      "ament": 1145,
      "truly": 1146,
      "say": 1147,
      "may": 1148,
      "blue": 1149,
      "does": 1150,
      "ordin": 1151,
      "knowledge": 1152,
      "barri": 1153,
      "diffe": 1154,
      "simply": 1155,
      "energy": 1156,
      "iosity": 1157,
      "12": 1158,
      "All": 1159,
      "To": 1160,
      "ave": 1161,
      "awe": 1162,
      "authority": 1163,
      "bound": 1164,
      "bene": 1165,
      "fing": 1166,
      "fle": 1167,
      "gate": 1168,
      "got": 1169,
      "hop": 1170,
      "mis": 1171,
      "pon": 1172,
      "pain": 1173,
      "sent": 1174,
      "sim": 1175,
      "ug": 1176,
      "remem": 1177,
      "ense": 1178,
      "stead": 1179,
      "ality": 1180,
      "least": 1181,
      "ows": 1182,
      "decla": 1183,
      "velo": 1184,
      "lling": 1185,
      "ically": 1186,
      "ute": 1187,
      "across": 1188,
      "ided": 1189,
      "weap": 1190,
      "sho": 1191,
      "There": 1192,
      "conne": 1193,
      "tran": 1194,
      "quick": 1195,
      "preh": 1196,
      "cient": 1197,
      "archy": 1198,
      "abilities": 1199,
      "stepped": 1200,
      "approached": 1201,
      "sett": 1202,
      "figure": 1203,
      "further": 1204,
      "nihilation": 1205,
      "declared": 1206,
      "Ar": 1207,
      "Ho": 1208,
      "Ko": 1209,
      "Oh": 1210,
      "Wit": 1211,
      "Your": 1212,
      "ake": 1213,
      "bas": 1214,
      "dou": 1215,
      "elf": 1216,
      "fli": 1217,
      "ied": 1218,
      "ily": 1219,
      "jour": 1220,
      "kat": 1221,
      "tre": 1222,
      "tem": 1223,
      "wal": 1224,
      "went": 1225,
      "intr": 1226,
      "ised": 1227,
      "sel": 1228,
      "seen": 1229,
      "dered": 1230,
      "omed": 1231,
      "ention": 1232,
      "escap": 1233,
      "shat": 1234,
      "shad": 1235,
      "shout": 1236,
      "keep": 1237,
      "next": 1238,
      "exud": 1239,
      "work": 1240,
      "trap": 1241,
      "truth": 1242,
      "ource": 1243,
      "times": 1244,
      "realm": 1245,
      "Annihilation": 1246,
      "Why": 1247,
      "carn": 1248,
      "skill": 1249,
      "needed": 1250,
      "frequ": 1251,
      "think": 1252,
      "sign": 1253,
      "potent": 1254,
      "barrier": 1255,
      "Koss": 1256,
      "intric": 1257,
      "10": 1258,
      "Se": 1259,
      "Sir": 1260,
      "Sana": 1261,
      "Un": 1262,
      "fic": 1263,
      "give": 1264,
      "hur": 1265,
      "ian": 1266,
      "jum": 1267,
      "kne": 1268,
      "night": 1269,
      "ps": 1270,
      "pat": 1271,
      "pur": 1272,
      "ru": 1273,
      "sn": 1274,
      "sou": 1275,
      "sir": 1276,
      "spo": 1277,
      "vast": 1278,
      "rel": 1279,
      "reach": 1280,
      "oud": 1281,
      "stret": 1282,
      "arted": 1283,
      "alyst": 1284,
      "desc": 1285,
      "chair": 1286,
      "entarchy": 1287,
      "ried": 1288,
      "concept": 1289,
      "peace": 1290,
      "aint": 1291,
      "ility": 1292,
      "tern": 1293,
      "same": 1294,
      "arely": 1295,
      "ulti": 1296,
      "compreh": 1297,
      "tele": 1298,
      "perhaps": 1299,
      "opened": 1300,
      "spir": 1301,
      "bled": 1302,
      "col": 1303,
      "surpr": 1304,
      "prep": 1305,
      "vie": 1306,
      "prison": 1307,
      "raw": 1308,
      "beings": 1309,
      "sition": 1310,
      "offer": 1311,
      "claimed": 1312,
      "breath": 1313,
      "expan": 1314,
      "explo": 1315,
      "threat": 1316,
      "since": 1317,
      "yelled": 1318,
      "balance": 1319,
      "overwhelming": 1320,
      "reincarn": 1321,
      "katana": 1322,
      "shouted": 1323,
      "Magic": 1324,
      "PO": 1325,
      "cil": 1326,
      "dri": 1327,
      "dict": 1328,
      "fla": 1329,
      "fire": 1330,
      "gg": 1331,
      "good": 1332,
      "ivid": 1333,
      "line": 1334,
      "multi": 1335,
      "pite": 1336,
      "row": 1337,
      "ric": 1338,
      "ually": 1339,
      "inct": 1340,
      "ancient": 1341,
      "ones": 1342,
      "ates": 1343,
      "ars": 1344,
      "already": 1345,
      "ition": 1346,
      "lead": 1347,
      "iron": 1348,
      "acing": 1349,
      "ship": 1350,
      "sub": 1351,
      "ape": 1352,
      "manip": 1353,
      "atever": 1354,
      "hadn": 1355,
      "expres": 1356,
      "true": 1357,
      "point": 1358,
      "polit": 1359,
      "ific": 1360,
      "individ": 1361,
      "ult": 1362,
      "perfect": 1363,
      "powerful": 1364,
      "coll": 1365,
      "remained": 1366,
      "newfound": 1367,
      "ments": 1368,
      "create": 1369,
      "matter": 1370,
      "struck": 1371,
      "understand": 1372,
      "walls": 1373,
      "encoun": 1374,
      "mination": 1375,
      "medi": 1376,
      "feeling": 1377,
      "three": 1378,
      "waiting": 1379,
      "name": 1380,
      "determination": 1381,
      "catalyst": 1382,
      "sacrif": 1383,
      "reason": 1384,
      "strongest": 1385,
      "Despite": 1386,
      "famili": 1387,
      "ordinary": 1388,
      "different": 1389,
      "hoping": 1390,
      "Witch": 1391,
      "expanse": 1392,
      "manipul": 1393,
      ",’": 1394,
      "Now": 1395,
      "Per": 1396,
      "cold": 1397,
      "dres": 1398,
      "due": 1399,
      "gent": 1400,
      "gift": 1401,
      "hy": 1402,
      "hor": 1403,
      "ib": 1404,
      "mist": 1405,
      "ner": 1406,
      "ok": 1407,
      "rup": 1408,
      "sid": 1409,
      "source": 1410,
      "tal": 1411,
      "ugh": 1412,
      "vit": 1413,
      "ination": 1414,
      "index": 1415,
      "return": 1416,
      "eng": 1417,
      "enig": 1418,
      "ased": 1419,
      "health": 1420,
      "meas": 1421,
      "lect": 1422,
      "ses": 1423,
      "challen": 1424,
      "uttered": 1425,
      "ird": 1426,
      "shall": 1427,
      "whatever": 1428,
      "laugh": 1429,
      "few": 1430,
      "resol": 1431,
      "pered": 1432,
      "word": 1433,
      "gether": 1434,
      "trans": 1435,
      "makes": 1436,
      "hair": 1437,
      "grav": 1438,
      "ular": 1439,
      "test": 1440,
      "moved": 1441,
      "bling": 1442,
      "pressure": 1443,
      "brid": 1444,
      "attention": 1445,
      "vious": 1446,
      "prom": 1447,
      "hands": 1448,
      "struct": 1449,
      "limit": 1450,
      "ject": 1451,
      "respon": 1452,
      "confid": 1453,
      "darkness": 1454,
      "summoned": 1455,
      "Destruction": 1456,
      "calcul": 1457,
      "focused": 1458,
      "witness": 1459,
      "responded": 1460,
      "midst": 1461,
      "vanished": 1462,
      "shifted": 1463,
      "beneath": 1464,
      "fingers": 1465,
      "quickly": 1466,
      "Arch": 1467,
      "Holy": 1468,
      "temple": 1469,
      "exuded": 1470,
      "frequency": 1471,
      "soul": 1472,
      "individual": 1473,
      "familiar": 1474,
      "100": 1475,
      "Al": 1476,
      "After": 1477,
      "Co": 1478,
      "Do": 1479,
      "En": 1480,
      "Even": 1481,
      "Just": 1482,
      "Pentarchy": 1483,
      "Re": 1484,
      "Yes": 1485,
      "bri": 1486,
      "evid": 1487,
      "evol": 1488,
      "fall": 1489,
      "flo": 1490,
      "gn": 1491,
      "main": 1492,
      "put": 1493,
      "run": 1494,
      "tar": 1495,
      "tle": 1496,
      "twi": 1497,
      "tic": 1498,
      "years": 1499,
      "ines": 1500,
      "inte": 1501,
      "reco": 1502,
      "started": 1503,
      "top": 1504,
      "often": 1505,
      "arked": 1506,
      "also": 1507,
      "hea": 1508,
      "mes": 1509,
      "mess": 1510,
      "myster": 1511,
      "ceive": 1512,
      "chan": 1513,
      "chance": 1514,
      "change": 1515,
      "iced": 1516,
      "und": 1517,
      "unted": 1518,
      "acc": 1519,
      "ager": 1520,
      "suff": 1521,
      "ney": 1522,
      "lost": 1523,
      "many": 1524,
      "experi": 1525,
      "ains": 1526,
      "pol": 1527,
      "making": 1528,
      "area": 1529,
      "aren": 1530,
      "prote": 1531,
      "present": 1532,
      "umb": 1533,
      "actions": 1534,
      "wouldn": 1535,
      "rence": 1536,
      "cker": 1537,
      "turning": 1538,
      "formation": 1539,
      "carry": 1540,
      "lightly": 1541,
      "curiosity": 1542,
      "field": 1543,
      "closer": 1544,
      "closed": 1545,
      "effort": 1546,
      "wanted": 1547,
      "slowly": 1548,
      "meeting": 1549,
      "pulled": 1550,
      "echoed": 1551,
      "partic": 1552,
      "possible": 1553,
      "punch": 1554,
      "given": 1555,
      "victory": 1556,
      "desert": 1557,
      "whispered": 1558,
      "doub": 1559,
      "journey": 1560,
      "intricate": 1561,
      "hurt": 1562,
      "purpose": 1563,
      "POV": 1564,
      "Is": 1565,
      "bit": 1566,
      "ball": 1567,
      "cling": 1568,
      "dream": 1569,
      "fallen": 1570,
      "hint": 1571,
      "kind": 1572,
      "nation": 1573,
      "pas": 1574,
      "past": 1575,
      "rit": 1576,
      "ration": 1577,
      "swe": 1578,
      "thetic": 1579,
      "anti": 1580,
      "erial": 1581,
      "atic": 1582,
      "atus": 1583,
      "stone": 1584,
      "together": 1585,
      "orig": 1586,
      "hesit": 1587,
      "itude": 1588,
      "leap": 1589,
      "sem": 1590,
      "become": 1591,
      "uring": 1592,
      "irm": 1593,
      "These": 1594,
      "imm": 1595,
      "imag": 1596,
      "rot": 1597,
      "laught": 1598,
      "consc": 1599,
      "loc": 1600,
      "sole": 1601,
      "abo": 1602,
      "ext": 1603,
      "ils": 1604,
      "ilt": 1605,
      "term": 1606,
      "quire": 1607,
      "tell": 1608,
      "therland": 1609,
      "motherland": 1610,
      "illing": 1611,
      "himself": 1612,
      "sphere": 1613,
      "spine": 1614,
      "tinged": 1615,
      "cannot": 1616,
      "seems": 1617,
      "seemingly": 1618,
      "Index": 1619,
      "small": 1620,
      "display": 1621,
      "created": 1622,
      "matic": 1623,
      "material": 1624,
      "holy": 1625,
      "taking": 1626,
      "taken": 1627,
      "magical": 1628,
      "look": 1629,
      "everyone": 1630,
      "single": 1631,
      "skin": 1632,
      "understanding": 1633,
      "finite": 1634,
      "fied": 1635,
      "jected": 1636,
      "obser": 1637,
      "grew": 1638,
      "aware": 1639,
      "chest": 1640,
      "portation": 1641,
      "direct": 1642,
      "ashed": 1643,
      "distance": 1644,
      "support": 1645,
      "granted": 1646,
      "believe": 1647,
      "physical": 1648,
      "decided": 1649,
      "solute": 1650,
      "touch": 1651,
      "knees": 1652,
      "spoke": 1653,
      "view": 1654,
      "driver": 1655,
      "expression": 1656,
      "enigmatic": 1657,
      "bridge": 1658,
      "Archangel": 1659,
      "maintain": 1660,
      "origin": 1661,
      "conscious": 1662,
      "11": 1663,
      "20": 1664,
      "Not": 1665,
      "af": 1666,
      "ahead": 1667,
      "care": 1668,
      "dim": 1669,
      "faint": 1670,
      "gain": 1671,
      "gment": 1672,
      "gently": 1673,
      "hit": 1674,
      "hall": 1675,
      "ient": 1676,
      "ife": 1677,
      "ience": 1678,
      "mag": 1679,
      "mine": 1680,
      "pent": 1681,
      "pred": 1682,
      "rushed": 1683,
      "sand": 1684,
      "task": 1685,
      "usu": 1686,
      "uck": 1687,
      "ink": 1688,
      "inis": 1689,
      "inno": 1690,
      "oned": 1691,
      "ens": 1692,
      "ening": 1693,
      "state": 1694,
      "stance": 1695,
      "sters": 1696,
      "asp": 1697,
      "orm": 1698,
      "als": 1699,
      "def": 1700,
      "defeat": 1701,
      "lips": 1702,
      "wash": 1703,
      "ural": 1704,
      "unting": 1705,
      "acy": 1706,
      "vering": 1707,
      "verse": 1708,
      "shar": 1709,
      "shiver": 1710,
      "immedi": 1711,
      "rose": 1712,
      "confront": 1713,
      "near": 1714,
      "neck": 1715,
      "amid": 1716,
      "amity": 1717,
      "abbed": 1718,
      "ement": 1719,
      "embr": 1720,
      "expe": 1721,
      "worry": 1722,
      "posing": 1723,
      "comb": 1724,
      "tech": 1725,
      "sheer": 1726,
      "blur": 1727,
      "ister": 1728,
      "remarked": 1729,
      "reminis": 1730,
      "spec": 1731,
      "ishment": 1732,
      "survi": 1733,
      "surface": 1734,
      "whole": 1735,
      "attempt": 1736,
      "known": 1737,
      "scream": 1738,
      "eye": 1739,
      "render": 1740,
      "smic": 1741,
      "serpent": 1742,
      "prec": 1743,
      "vibr": 1744,
      "hounds": 1745,
      "domin": 1746,
      "strugg": 1747,
      "When": 1748,
      "bodies": 1749,
      "guard": 1750,
      "moments": 1751,
      "cles": 1752,
      "finally": 1753,
      "fix": 1754,
      "longer": 1755,
      "instant": 1756,
      "limb": 1757,
      "idea": 1758,
      "ches": 1759,
      "tried": 1760,
      "free": 1761,
      "better": 1762,
      "ctively": 1763,
      "burden": 1764,
      "gods": 1765,
      "atorship": 1766,
      "surrounding": 1767,
      "echoing": 1768,
      "revealing": 1769,
      "courage": 1770,
      "drop": 1771,
      "Titan": 1772,
      "----------------": 1773,
      "sorrow": 1774,
      "soldier": 1775,
      "stronger": 1776,
      "swiftly": 1777,
      "followed": 1778,
      "activated": 1779,
      "resonated": 1780,
      "simple": 1781,
      "veloped": 1782,
      "weapon": 1783,
      "shock": 1784,
      "selves": 1785,
      "escape": 1786,
      "snap": 1787,
      "surprise": 1788,
      "reincarnated": 1789,
      "gravity": 1790,
      "response": 1791,
      "evident": 1792,
      "channe": 1793,
      "Cal": 1794,
      "On": 1795,
      "Our": 1796,
      "avoid": 1797,
      "bore": 1798,
      "barely": 1799,
      "ethe": 1800,
      "fut": 1801,
      "fast": 1802,
      "flow": 1803,
      "gle": 1804,
      "gone": 1805,
      "ggest": 1806,
      "ler": 1807,
      "lack": 1808,
      "mir": 1809,
      "muttered": 1810,
      "pal": 1811,
      "ran": 1812,
      "squ": 1813,
      "spot": 1814,
      "ts": 1815,
      "yn": 1816,
      "zing": 1817,
      "ins": 1818,
      "inspir": 1819,
      "rect": 1820,
      "atmo": 1821,
      "sted": 1822,
      "tower": 1823,
      "ision": 1824,
      "isdom": 1825,
      "hear": 1826,
      "heav": 1827,
      "meant": 1828,
      "lear": 1829,
      "lease": 1830,
      "dem": 1831,
      "deli": 1832,
      "demand": 1833,
      "bea": 1834,
      "chang": 1835,
      "child": 1836,
      "oman": 1837,
      "vered": 1838,
      "ady": 1839,
      "added": 1840,
      "icide": 1841,
      "une": 1842,
      "unsett": 1843,
      "irt": 1844,
      "ago": 1845,
      "iment": 1846,
      "royal": 1847,
      "superi": 1848,
      "suggest": 1849,
      "lake": 1850,
      "feet": 1851,
      "reser": 1852,
      "respect": 1853,
      "ably": 1854,
      "emot": 1855,
      "exc": 1856,
      "position": 1857,
      "outside": 1858,
      "ization": 1859,
      "haze": 1860,
      "grabbed": 1861,
      "teach": 1862,
      "strange": 1863,
      "caught": 1864,
      "process": 1865,
      "pressed": 1866,
      "eping": 1867,
      "willing": 1868,
      "themselves": 1869,
      "bring": 1870,
      "brought": 1871,
      "placed": 1872,
      "knowing": 1873,
      "Instead": 1874,
      "eerie": 1875,
      "monsters": 1876,
      "udgment": 1877,
      "raised": 1878,
      "impact": 1879,
      "impending": 1880,
      "others": 1881,
      "formed": 1882,
      "cial": 1883,
      "die": 1884,
      "carried": 1885,
      "appear": 1886,
      "Some": 1887,
      "curious": 1888,
      "instead": 1889,
      "instinct": 1890,
      "plane": 1891,
      "trio": 1892,
      "shoulder": 1893,
      "little": 1894,
      "ield": 1895,
      "council": 1896,
      "pride": 1897,
      "genu": 1898,
      "merely": 1899,
      "build": 1900,
      "window": 1901,
      "refused": 1902,
      "focus": 1903,
      "mix": 1904,
      "revealed": 1905,
      "features": 1906,
      "drogen": 1907,
      "pathetic": 1908,
      "water": 1909,
      "strike": 1910,
      "empting": 1911,
      "possib": 1912,
      "reminded": 1913,
      "illion": 1914,
      "broken": 1915,
      "cuss": 1916,
      "malevol": 1917,
      "shattered": 1918,
      "shadow": 1919,
      "potential": 1920,
      "relent": 1921,
      "teleportation": 1922,
      "hydrogen": 1923,
      "confidence": 1924,
      "above": 1925,
      "magn": 1926,
      "amidst": 1927,
      "ethereal": 1928,
      "gleam": 1929,
      "building": 1930,
      "!\"": 1931,
      "At": 1932,
      "Cur": 1933,
      "Don": 1934,
      "Dam": 1935,
      "Each": 1936,
      "Fl": 1937,
      "Fate": 1938,
      "Let": 1939,
      "ON": 1940,
      "Wa": 1941,
      "bor": 1942,
      "bul": 1943,
      "cing": 1944,
      "cking": 1945,
      "ctory": 1946,
      "dare": 1947,
      "daw": 1948,
      "danger": 1949,
      "during": 1950,
      "ele": 1951,
      "fab": 1952,
      "faced": 1953,
      "firm": 1954,
      "gold": 1955,
      "gover": 1956,
      "ither": 1957,
      "moun": 1958,
      "million": 1959,
      "nor": 1960,
      "pure": 1961,
      "pled": 1962,
      "ris": 1963,
      "rap": 1964,
      "sword": 1965,
      "slightly": 1966,
      "table": 1967,
      "var": 1968,
      "wast": 1969,
      "thus": 1970,
      "third": 1971,
      "inted": 1972,
      "inous": 1973,
      "information": 1974,
      "edge": 1975,
      "told": 1976,
      "assa": 1977,
      "isn": 1978,
      "arr": 1979,
      "aling": 1980,
      "along": 1981,
      "heat": 1982,
      "leave": 1983,
      "seat": 1984,
      "desi": 1985,
      "destruction": 1986,
      "bered": 1987,
      "lif": 1988,
      "enter": 1989,
      "unit": 1990,
      "unlike": 1991,
      "utter": 1992,
      "irl": 1993,
      "acted": 1994,
      "weak": 1995,
      "shap": 1996,
      "shirt": 1997,
      "rived": 1998,
      "ages": 1999,
      "rog": 2000,
      "kept": 2001,
      "nod": 2002,
      "noti": 2003,
      "contr": 2004,
      "concer": 2005,
      "convers": 2006,
      "fell": 2007,
      "logy": 2008,
      "loomed": 2009,
      "among": 2010,
      "absolute": 2011,
      "managed": 2012,
      "frust": 2013,
      "emer": 2014,
      "empl": 2015,
      "explan": 2016,
      "expect": 2017,
      "posed": 2018,
      "arena": 2019,
      "grin": 2020,
      "grace": 2021,
      "comer": 2022,
      "antic": 2023,
      "hard": 2024,
      "noticed": 2025,
      "acknow": 2026,
      "lessly": 2027,
      "order": 2028,
      "realization": 2029,
      "spect": 2030,
      "speak": 2031,
      "knows": 2032,
      "intri": 2033,
      "smir": 2034,
      "prevent": 2035,
      "prof": 2036,
      "lifeless": 2037,
      "discuss": 2038,
      "creating": 2039,
      "monster": 2040,
      "matri": 2041,
      "hole": 2042,
      "taunted": 2043,
      "choice": 2044,
      "cru": 2045,
      "gazed": 2046,
      "warm": 2047,
      "jectory": 2048,
      "archangel": 2049,
      "green": 2050,
      "halt": 2051,
      "natural": 2052,
      "director": 2053,
      "iction": 2054,
      "summoning": 2055,
      "count": 2056,
      "approach": 2057,
      "trajectory": 2058,
      "signed": 2059,
      "desper": 2060,
      "ripped": 2061,
      "destro": 2062,
      "surrounded": 2063,
      "happiness": 2064,
      "witch": 2065,
      "interjected": 2066,
      "regain": 2067,
      "physics": 2068,
      "occur": 2069,
      "wonder": 2070,
      "slave": 2071,
      "deputy": 2072,
      "despite": 2073,
      "stretched": 2074,
      "chairman": 2075,
      "dictatorship": 2076,
      "fireball": 2077,
      "sacrifice": 2078,
      "dressed": 2079,
      "gentle": 2080,
      "resolve": 2081,
      "testament": 2082,
      "witnessed": 2083,
      "individuals": 2084,
      "recogn": 2085,
      "suffering": 2086,
      "experience": 2087,
      "polite": 2088,
      "washed": 2089,
      "sharp": 2090,
      "immediately": 2091,
      "expected": 2092,
      "reminiscent": 2093,
      "Calamity": 2094,
      "atmosphere": 2095,
      "emotions": 2096,
      "genuine": 2097,
      "fabric": 2098,
      "golden": 2099,
      "conversation": 2100,
      "Ah": 2101,
      "Ch": 2102,
      "Dé": 2103,
      "Dire": 2104,
      "Em": 2105,
      "Gr": 2106,
      "May": 2107,
      "Om": 2108,
      "Si": 2109,
      "TE": 2110,
      "Vamp": 2111,
      "athe": 2112,
      "cry": 2113,
      "case": 2114,
      "cross": 2115,
      "eing": 2116,
      "eas": 2117,
      "equ": 2118,
      "etern": 2119,
      "eager": 2120,
      "fad": 2121,
      "fold": 2122,
      "fist": 2123,
      "fav": 2124,
      "ger": 2125,
      "ges": 2126,
      "glim": 2127,
      "hue": 2128,
      "hung": 2129,
      "hund": 2130,
      "iable": 2131,
      "iers": 2132,
      "jest": 2133,
      "mou": 2134,
      "paren": 2135,
      "raced": 2136,
      "sal": 2137,
      "sad": 2138,
      "swords": 2139,
      "sending": 2140,
      "win": 2141,
      "wood": 2142,
      "xth": 2143,
      "inv": 2144,
      "infinite": 2145,
      "request": 2146,
      "require": 2147,
      "thes": 2148,
      "ater": 2149,
      "ench": 2150,
      "ension": 2151,
      "enveloped": 2152,
      "storm": 2153,
      "orted": 2154,
      "ises": 2155,
      "offe": 2156,
      "alli": 2157,
      "alone": 2158,
      "hell": 2159,
      "ital": 2160,
      "meters": 2161,
      "lest": 2162,
      "sea": 2163,
      "secon": 2164,
      "secre": 2165,
      "deed": 2166,
      "dear": 2167,
      "below": 2168,
      "became": 2169,
      "liar": 2170,
      "wil": 2171,
      "wield": 2172,
      "omb": 2173,
      "vey": 2174,
      "adv": 2175,
      "advers": 2176,
      "uni": 2177,
      "unity": 2178,
      "unable": 2179,
      "idable": 2180,
      "show": 2181,
      "agent": 2182,
      "suc": 2183,
      "sured": 2184,
      "apart": 2185,
      "allowed": 2186,
      "loss": 2187,
      "pecu": 2188,
      "extra": 2189,
      "iling": 2190,
      "usion": 2191,
      "quite": 2192,
      "growing": 2193,
      "grasp": 2194,
      "tears": 2195,
      "motion": 2196,
      "stry": 2197,
      "option": 2198,
      "oppon": 2199,
      "else": 2200,
      "newcomer": 2201,
      "aston": 2202,
      "spective": 2203,
      "ishing": 2204,
      "surge": 2205,
      "attempting": 2206,
      "contempl": 2207,
      "smiled": 2208,
      "creat": 2209,
      "ravel": 2210,
      "foot": 2211,
      "formidable": 2212,
      "chosen": 2213,
      "choose": 2214,
      "ots": 2215,
      "mighty": 2216,
      "humanity": 2217,
      "final": 2218,
      "fteros": 2219,
      "torted": 2220,
      "clou": 2221,
      "claw": 2222,
      "calling": 2223,
      "close": 2224,
      "landed": 2225,
      "getting": 2226,
      "barr": 2227,
      "steps": 2228,
      "going": 2229,
      "wavering": 2230,
      "burst": 2231,
      "calm": 2232,
      "commanded": 2233,
      "clearly": 2234,
      "sudden": 2235,
      "ripping": 2236,
      "surroundings": 2237,
      "corp": 2238,
      "glass": 2239,
      "entirely": 2240,
      "glowing": 2241,
      "Titans": 2242,
      "trembling": 2243,
      "possessed": 2244,
      "full": 2245,
      "soldiers": 2246,
      "blade": 2247,
      "joy": 2248,
      "radiating": 2249,
      "market": 2250,
      "charged": 2251,
      "maybe": 2252,
      "remembered": 2253,
      "connected": 2254,
      "basic": 2255,
      "walking": 2256,
      "signific": 2257,
      "jump": 2258,
      "flames": 2259,
      "multiverse": 2260,
      "political": 2261,
      "collap": 2262,
      "mistak": 2263,
      "heaven": 2264,
      "carrying": 2265,
      "materialized": 2266,
      "embrace": 2267,
      "techno": 2268,
      "precise": 2269,
      "heavy": 2270,
      "demise": 2271,
      "unsettling": 2272,
      "malevolent": 2273,
      "relentless": 2274,
      "Damian": 2275,
      "bullet": 2276,
      "govern": 2277,
      "nodded": 2278,
      "concern": 2279,
      "frustration": 2280,
      "emerged": 2281,
      "explanation": 2282,
      "anticip": 2283,
      "matriarch": 2284,
      "destroy": 2285,
      "Défteros": 2286,
      "Director": 2287,
      "Maybe": 2288,
      "hundred": 2289,
      "mouth": 2290,
      "sadness": 2291,
      "seconds": 2292,
      "peculiar": 2293,
      "extraordinary": 2294,
      "opponent": 2295,
      "Are": 2296,
      "Amidst": 2297,
      "Dest": 2298,
      "Every": 2299,
      "Pr": 2300,
      "Please": 2301,
      "Ti": 2302,
      "Who": 2303,
      "ather": 2304,
      "aud": 2305,
      "aos": 2306,
      "bad": 2307,
      "bold": 2308,
      "bones": 2309,
      "crim": 2310,
      "ding": 2311,
      "ek": 2312,
      "flood": 2313,
      "facing": 2314,
      "gri": 2315,
      "gust": 2316,
      "gency": 2317,
      "girl": 2318,
      "iqu": 2319,
      "ially": 2320,
      "job": 2321,
      "jaw": 2322,
      "lli": 2323,
      "late": 2324,
      "mur": 2325,
      "mus": 2326,
      "mined": 2327,
      "pound": 2328,
      "pul": 2329,
      "pursuit": 2330,
      "piqu": 2331,
      "ror": 2332,
      "rid": 2333,
      "sof": 2334,
      "sar": 2335,
      "sle": 2336,
      "smo": 2337,
      "tall": 2338,
      "tact": 2339,
      "ues": 2340,
      "zone": 2341,
      "thro": 2342,
      "thod": 2343,
      "inf": 2344,
      "inn": 2345,
      "incre": 2346,
      "inatus": 2347,
      "recent": 2348,
      "returned": 2349,
      "reign": 2350,
      "resem": 2351,
      "retorted": 2352,
      "aned": 2353,
      "anic": 2354,
      "anced": 2355,
      "onto": 2356,
      "ensure": 2357,
      "ste": 2358,
      "stated": 2359,
      "stair": 2360,
      "stage": 2361,
      "ories": 2362,
      "arrived": 2363,
      "arrog": 2364,
      "itted": 2365,
      "itement": 2366,
      "means": 2367,
      "ceed": 2368,
      "cell": 2369,
      "dev": 2370,
      "defe": 2371,
      "demon": 2372,
      "devoid": 2373,
      "demi": 2374,
      "betr": 2375,
      "lying": 2376,
      "lier": 2377,
      "live": 2378,
      "lives": 2379,
      "chur": 2380,
      "chimed": 2381,
      "chaos": 2382,
      "entered": 2383,
      "urgency": 2384,
      "unravel": 2385,
      "unwavering": 2386,
      "ution": 2387,
      "forced": 2388,
      "acce": 2389,
      "accom": 2390,
      "accent": 2391,
      "idden": 2392,
      "wealth": 2393,
      "ounce": 2394,
      "short": 2395,
      "shift": 2396,
      "impres": 2397,
      "laun": 2398,
      "resist": 2399,
      "lot": 2400,
      "loyal": 2401,
      "amuse": 2402,
      "abl": 2403,
      "manife": 2404,
      "tight": 2405,
      "frag": 2406,
      "exper": 2407,
      "except": 2408,
      "worked": 2409,
      "ilants": 2410,
      "tering": 2411,
      "pool": 2412,
      "voy": 2413,
      "izon": 2414,
      "inding": 2415,
      "ours": 2416,
      "grap": 2417,
      "common": 2418,
      "tear": 2419,
      "Its": 2420,
      "ends": 2421,
      "endous": 2422,
      "likely": 2423,
      "cared": 2424,
      "forever": 2425,
      "things": 2426,
      "proble": 2427,
      "ously": 2428,
      "achie": 2429,
      "inevit": 2430,
      "remain": 2431,
      "mention": 2432,
      "really": 2433,
      "realize": 2434,
      "surged": 2435,
      "whose": 2436,
      "intense": 2437,
      "pleas": 2438,
      "smug": 2439,
      "preci": 2440,
      "throne": 2441,
      "anymore": 2442,
      "creation": 2443,
      "matching": 2444,
      "establ": 2445,
      "sensed": 2446,
      "lingered": 2447,
      "seeking": 2448,
      "offic": 2449,
      "guide": 2450,
      "crack": 2451,
      "crum": 2452,
      "crushing": 2453,
      "iously": 2454,
      "reading": 2455,
      "captiv": 2456,
      "understood": 2457,
      "finished": 2458,
      "clar": 2459,
      "instantly": 2460,
      "visible": 2461,
      "clothes": 2462,
      "casting": 2463,
      "friends": 2464,
      "enetr": 2465,
      "Deicide": 2466,
      "gener": 2467,
      "thinking": 2468,
      "rifying": 2469,
      "fighting": 2470,
      "flu": 2471,
      "happened": 2472,
      "determined": 2473,
      "believed": 2474,
      "spells": 2475,
      "rono": 2476,
      "tremendous": 2477,
      "legend": 2478,
      "striking": 2479,
      "decision": 2480,
      "empire": 2481,
      "fuel": 2482,
      "sacred": 2483,
      "casm": 2484,
      "empty": 2485,
      "opening": 2486,
      "boundless": 2487,
      "remember": 2488,
      "steady": 2489,
      "weapons": 2490,
      "connect": 2491,
      "shadows": 2492,
      "trapped": 2493,
      "patron": 2494,
      "reaching": 2495,
      "descending": 2496,
      "prepared": 2497,
      "collar": 2498,
      "encounter": 2499,
      "Perspective": 2500,
      "gifts": 2501,
      "horizon": 2502,
      "calculating": 2503,
      "Cosmic": 2504,
      "target": 2505,
      "interest": 2506,
      "doubt": 2507,
      "laughter": 2508,
      "original": 2509,
      "consciousness": 2510,
      "usual": 2511,
      "shivers": 2512,
      "blurred": 2513,
      "fixed": 2514,
      "inspiring": 2515,
      "beauty": 2516,
      "magnitude": 2517,
      "Wait": 2518,
      "assailants": 2519,
      "shapes": 2520,
      "contrast": 2521,
      "gracefully": 2522,
      "acknowled": 2523,
      "intrigu": 2524,
      "profound": 2525,
      "Omni": 2526,
      "Sixth": 2527,
      "unique": 2528,
      "technology": 2529,
      "government": 2530,
      "Destinatus": 2531,
      "Time": 2532,
      "crimson": 2533,
      "soft": 2534,
      "sarcasm": 2535,
      "betray": 2536,
      "problem": 2537,
      "captivating": 2538,
      "\".": 2539,
      "AL": 2540,
      "Authority": 2541,
      "Can": 2542,
      "Coun": 2543,
      "El": 2544,
      "Er": 2545,
      "Hound": 2546,
      "Ir": 2547,
      "Lady": 2548,
      "Ma": 2549,
      "More": 2550,
      "Mister": 2551,
      "Night": 2552,
      "Or": 2553,
      "Su": 2554,
      "TI": 2555,
      "Tr": 2556,
      "Taking": 2557,
      "au": 2558,
      "aid": 2559,
      "aight": 2560,
      "aked": 2561,
      "bi": 2562,
      "bbed": 2563,
      "cred": 2564,
      "cked": 2565,
      "cup": 2566,
      "cra": 2567,
      "da": 2568,
      "dle": 2569,
      "dam": 2570,
      "dod": 2571,
      "ev": 2572,
      "eur": 2573,
      "eper": 2574,
      "elim": 2575,
      "equi": 2576,
      "faction": 2577,
      "gun": 2578,
      "grim": 2579,
      "hus": 2580,
      "hift": 2581,
      "judgment": 2582,
      "killed": 2583,
      "lar": 2584,
      "laced": 2585,
      "loud": 2586,
      "mas": 2587,
      "nu": 2588,
      "non": 2589,
      "ored": 2590,
      "pace": 2591,
      "pped": 2592,
      "pushed": 2593,
      "pushing": 2594,
      "ring": 2595,
      "race": 2596,
      "rush": 2597,
      "sw": 2598,
      "som": 2599,
      "sation": 2600,
      "snow": 2601,
      "scared": 2602,
      "tap": 2603,
      "tug": 2604,
      "wering": 2605,
      "wisdom": 2606,
      "woman": 2607,
      "yield": 2608,
      "zation": 2609,
      "—\"": 2610,
      "iny": 2611,
      "ining": 2612,
      "inated": 2613,
      "inci": 2614,
      "invol": 2615,
      "repe": 2616,
      "restr": 2617,
      "revel": 2618,
      "replaced": 2619,
      "ane": 2620,
      "aning": 2621,
      "anim": 2622,
      "eral": 2623,
      "atience": 2624,
      "ende": 2625,
      "enthus": 2626,
      "stun": 2627,
      "start": 2628,
      "stud": 2629,
      "asc": 2630,
      "asser": 2631,
      "orse": 2632,
      "orned": 2633,
      "isfaction": 2634,
      "arily": 2635,
      "alive": 2636,
      "hes": 2637,
      "mered": 2638,
      "mesm": 2639,
      "method": 2640,
      "sever": 2641,
      "celest": 2642,
      "deta": 2643,
      "demean": 2644,
      "defied": 2645,
      "designed": 2646,
      "deeper": 2647,
      "widen": 2648,
      "omn": 2649,
      "ominous": 2650,
      "vector": 2651,
      "veins": 2652,
      "adorned": 2653,
      "ghold": 2654,
      "icing": 2655,
      "uries": 2656,
      "uncertain": 2657,
      "unfold": 2658,
      "utes": 2659,
      "irrit": 2660,
      "forgot": 2661,
      "acle": 2662,
      "shade": 2663,
      "rival": 2664,
      "aging": 2665,
      "impossible": 2666,
      "imposing": 2667,
      "road": 2668,
      "super": 2669,
      "apparen": 2670,
      "conv": 2671,
      "consid": 2672,
      "convey": 2673,
      "love": 2674,
      "loved": 2675,
      "soci": 2676,
      "exam": 2677,
      "exact": 2678,
      "exclaimed": 2679,
      "worth": 2680,
      "terrifying": 2681,
      "trou": 2682,
      "trust": 2683,
      "posure": 2684,
      "pointed": 2685,
      "quar": 2686,
      "master": 2687,
      "having": 2688,
      "indic": 2689,
      "ourth": 2690,
      "grow": 2691,
      "comra": 2692,
      "composure": 2693,
      "teen": 2694,
      "endless": 2695,
      "perceive": 2696,
      "moving": 2697,
      "straight": 2698,
      "opport": 2699,
      "eting": 2700,
      "etched": 2701,
      "spire": 2702,
      "essence": 2703,
      "blow": 2704,
      "blance": 2705,
      "prope": 2706,
      "provid": 2707,
      "proclaimed": 2708,
      "weren": 2709,
      "lesser": 2710,
      "remains": 2711,
      "newly": 2712,
      "realizing": 2713,
      "actually": 2714,
      "special": 2715,
      "brut": 2716,
      "content": 2717,
      "intent": 2718,
      "viol": 2719,
      "vessel": 2720,
      "disgust": 2721,
      "match": 2722,
      "matched": 2723,
      "matters": 2724,
      "backward": 2725,
      "sensation": 2726,
      "import": 2727,
      "impatience": 2728,
      "fool": 2729,
      "forms": 2730,
      "seek": 2731,
      "anging": 2732,
      "bored": 2733,
      "carri": 2734,
      "guess": 2735,
      "guilt": 2736,
      "game": 2737,
      "gather": 2738,
      "momentarily": 2739,
      "capable": 2740,
      "warning": 2741,
      "enced": 2742,
      "akin": 2743,
      "five": 2744,
      "heroes": 2745,
      "Without": 2746,
      "dral": 2747,
      "earth": 2748,
      "jeans": 2749,
      "obvious": 2750,
      "begin": 2751,
      "effic": 2752,
      "minutes": 2753,
      "titles": 2754,
      "goti": 2755,
      "tension": 2756,
      "comes": 2757,
      "universes": 2758,
      "direction": 2759,
      "priv": 2760,
      "Death": 2761,
      "silent": 2762,
      "commands": 2763,
      "built": 2764,
      "movements": 2765,
      "distant": 2766,
      "layer": 2767,
      "battlefield": 2768,
      "destination": 2769,
      "deeply": 2770,
      "mixt": 2771,
      "grandeur": 2772,
      "funeral": 2773,
      "middle": 2774,
      "regard": 2775,
      "belief": 2776,
      "legs": 2777,
      "mortals": 2778,
      "metal": 2779,
      "complex": 2780,
      "complete": 2781,
      "casual": 2782,
      "circ": 2783,
      "writ": 2784,
      "illions": 2785,
      "stronghold": 2786,
      "meaning": 2787,
      "bestowed": 2788,
      "questioned": 2789,
      "satisfaction": 2790,
      "depth": 2791,
      "despair": 2792,
      "logic": 2793,
      "doesn": 2794,
      "fleeting": 2795,
      "mission": 2796,
      "flicker": 2797,
      "skills": 2798,
      "Second": 2799,
      "Seeing": 2800,
      "stretching": 2801,
      "comprehend": 2802,
      "preparing": 2803,
      "multiple": 2804,
      "politics": 2805,
      "manipulate": 2806,
      "Perhaps": 2807,
      "measure": 2808,
      "measured": 2809,
      "transformed": 2810,
      "makeshift": 2811,
      "souls": 2812,
      "twisted": 2813,
      "mystery": 2814,
      "particular": 2815,
      "hurtling": 2816,
      "clinging": 2817,
      "hesitation": 2818,
      "immense": 2819,
      "innocent": 2820,
      "rendering": 2821,
      "guards": 2822,
      "futile": 2823,
      "learn": 2824,
      "unease": 2825,
      "superiority": 2826,
      "excitement": 2827,
      "appearance": 2828,
      "instincts": 2829,
      "Curiosity": 2830,
      "Flash": 2831,
      "waste": 2832,
      "desires": 2833,
      "cruel": 2834,
      "Chrono": 2835,
      "cryst": 2836,
      "eternity": 2837,
      "jesty": 2838,
      "enchant": 2839,
      "secret": 2840,
      "succ": 2841,
      "significance": 2842,
      "heavens": 2843,
      "piqued": 2844,
      "throat": 2845,
      "arrogance": 2846,
      "church": 2847,
      "acceler": 2848,
      "loyalty": 2849,
      "amusement": 2850,
      "official": 2851,
      "legendary": 2852,
      "Omnipresence": 2853,
      "Erbe": 2854,
      "Irish": 2855,
      "revelation": 2856,
      "endeav": 2857,
      "enthusi": 2858,
      "mesmer": 2859,
      "celestial": 2860,
      "irritation": 2861,
      "apparent": 2862,
      "mixture": 2863,
      "*.": 2864,
      "13": 2865,
      "50": 2866,
      "AN": 2867,
      "Ad": 2868,
      "Cl": 2869,
      "Com": 2870,
      "DI": 2871,
      "Eye": 2872,
      "Fo": 2873,
      "IL": 2874,
      "Le": 2875,
      "Mana": 2876,
      "OU": 2877,
      "Ob": 2878,
      "One": 2879,
      "Po": 2880,
      "RE": 2881,
      "St": 2882,
      "TH": 2883,
      "Willi": 2884,
      "bing": 2885,
      "band": 2886,
      "bers": 2887,
      "bending": 2888,
      "brim": 2889,
      "border": 2890,
      "bomb": 2891,
      "cow": 2892,
      "cli": 2893,
      "cri": 2894,
      "cence": 2895,
      "cket": 2896,
      "done": 2897,
      "dament": 2898,
      "dition": 2899,
      "eman": 2900,
      "either": 2901,
      "fac": 2902,
      "fro": 2903,
      "fant": 2904,
      "fact": 2905,
      "filling": 2906,
      "gro": 2907,
      "gres": 2908,
      "gue": 2909,
      "hood": 2910,
      "hidden": 2911,
      "hanging": 2912,
      "ik": 2913,
      "ior": 2914,
      "ks": 2915,
      "kno": 2916,
      "ls": 2917,
      "mor": 2918,
      "mage": 2919,
      "mark": 2920,
      "none": 2921,
      "nice": 2922,
      "ost": 2923,
      "olog": 2924,
      "pay": 2925,
      "pill": 2926,
      "pair": 2927,
      "pie": 2928,
      "pass": 2929,
      "panic": 2930,
      "penetr": 2931,
      "ram": 2932,
      "rul": 2933,
      "rling": 2934,
      "rang": 2935,
      "sli": 2936,
      "sne": 2937,
      "syn": 2938,
      "tint": 2939,
      "tape": 2940,
      "uma": 2941,
      "vation": 2942,
      "wers": 2943,
      "wise": 2944,
      "year": 2945,
      "zy": 2946,
      "zz": 2947,
      "thous": 2948,
      "ince": 2949,
      "inting": 2950,
      "instruct": 2951,
      "inctively": 2952,
      "incred": 2953,
      "resu": 2954,
      "rene": 2955,
      "reated": 2956,
      "thered": 2957,
      "thedral": 2958,
      "ank": 2959,
      "ann": 2960,
      "annihil": 2961,
      "oup": 2962,
      "atue": 2963,
      "atible": 2964,
      "env": 2965,
      "stom": 2966,
      "stable": 2967,
      "stared": 2968,
      "stark": 2969,
      "stained": 2970,
      "story": 2971,
      "status": 2972,
      "statue": 2973,
      "tore": 2974,
      "today": 2975,
      "towering": 2976,
      "assi": 2977,
      "assed": 2978,
      "aside": 2979,
      "orting": 2980,
      "aries": 2981,
      "ali": 2982,
      "alt": 2983,
      "aled": 2984,
      "alle": 2985,
      "alities": 2986,
      "aloud": 2987,
      "iti": 2988,
      "myth": 2989,
      "sequ": 2990,
      "serene": 2991,
      "ceased": 2992,
      "owess": 2993,
      "del": 2994,
      "beat": 2995,
      "bell": 2996,
      "belong": 2997,
      "bewil": 2998,
      "chained": 2999,
      "vereign": 3000,
      "adm": 3001,
      "ado": 3002,
      "adron": 3003,
      "addressed": 3004,
      "entity": 3005,
      "ghed": 3006,
      "unle": 3007,
      "unexpected": 3008,
      "utr": 3009,
      "utili": 3010,
      "irmed": 3011,
      "irises": 3012,
      "forget": 3013,
      "web": 3014,
      "ount": 3015,
      "shared": 3016,
      "shaking": 3017,
      "shake": 3018,
      "ribut": 3019,
      "Their": 3020,
      "agre": 3021,
      "iming": 3022,
      "imate": 3023,
      "immortal": 3024,
      "suf": 3025,
      "law": 3026,
      "nose": 3027,
      "note": 3028,
      "conce": 3029,
      "conside": 3030,
      "allowing": 3031,
      "negoti": 3032,
      "neutr": 3033,
      "lose": 3034,
      "pet": 3035,
      "abs": 3036,
      "herself": 3037,
      "till": 3038,
      "fraction": 3039,
      "emph": 3040,
      "worse": 3041,
      "working": 3042,
      "try": 3043,
      "pocket": 3044,
      "iful": 3045,
      "ified": 3046,
      "outward": 3047,
      "quality": 3048,
      "mach": 3049,
      "haven": 3050,
      "haunting": 3051,
      "antage": 3052,
      "ustomed": 3053,
      "moon": 3054,
      "moil": 3055,
      "strate": 3056,
      "owers": 3057,
      "causing": 3058,
      "cathedral": 3059,
      "illum": 3060,
      "sible": 3061,
      "sighed": 3062,
      "spark": 3063,
      "Though": 3064,
      "cover": 3065,
      "covered": 3066,
      "coloss": 3067,
      "provi": 3068,
      "produ": 3069,
      "worlds": 3070,
      "worldly": 3071,
      "timeline": 3072,
      "elven": 3073,
      "umph": 3074,
      "remorse": 3075,
      "overpower": 3076,
      "mental": 3077,
      "evening": 3078,
      "brain": 3079,
      "dense": 3080,
      "pling": 3081,
      "plom": 3082,
      "scent": 3083,
      "intens": 3084,
      "ples": 3085,
      "turmoil": 3086,
      "serious": 3087,
      "previous": 3088,
      "vili": 3089,
      "prowess": 3090,
      "Ange": 3091,
      "anyone": 3092,
      "dismis": 3093,
      "ftly": 3094,
      "implo": 3095,
      "otherworldly": 3096,
      "angelic": 3097,
      "forming": 3098,
      "chool": 3099,
      "While": 3100,
      "civili": 3101,
      "diplom": 3102,
      "founded": 3103,
      "foundation": 3104,
      "boy": 3105,
      "book": 3106,
      "gave": 3107,
      "captain": 3108,
      "needs": 3109,
      "finish": 3110,
      "current": 3111,
      "answer": 3112,
      "answers": 3113,
      "center": 3114,
      "centuries": 3115,
      "torment": 3116,
      "clut": 3117,
      "class": 3118,
      "limited": 3119,
      "mustered": 3120,
      "obsid": 3121,
      "landing": 3122,
      "planet": 3123,
      "effect": 3124,
      "portal": 3125,
      "triumph": 3126,
      "break": 3127,
      "breaking": 3128,
      "letting": 3129,
      "levels": 3130,
      "revered": 3131,
      "Because": 3132,
      "country": 3133,
      "prior": 3134,
      "wave": 3135,
      "memory": 3136,
      "compatible": 3137,
      "swirling": 3138,
      "commanding": 3139,
      "onslaught": 3140,
      "atory": 3141,
      "desire": 3142,
      "cute": 3143,
      "finding": 3144,
      "holding": 3145,
      "yellow": 3146,
      "destiny": 3147,
      "happening": 3148,
      "correct": 3149,
      "supposed": 3150,
      "grants": 3151,
      "granting": 3152,
      "doors": 3153,
      "venture": 3154,
      "playful": 3155,
      "course": 3156,
      "diffic": 3157,
      "fundament": 3158,
      "vanced": 3159,
      "retreated": 3160,
      "occup": 3161,
      "paralle": 3162,
      "watching": 3163,
      "punishment": 3164,
      "fortun": 3165,
      "reminder": 3166,
      "overwhelmed": 3167,
      "blame": 3168,
      "sounded": 3169,
      "wrong": 3170,
      "wrath": 3171,
      "broke": 3172,
      "activate": 3173,
      "fail": 3174,
      "father": 3175,
      "humor": 3176,
      "shifting": 3177,
      "whisper": 3178,
      "transition": 3179,
      "walked": 3180,
      "keeping": 3181,
      "trapdoor": 3182,
      "jumped": 3183,
      "descended": 3184,
      "comprehension": 3185,
      "colle": 3186,
      "encountered": 3187,
      "rupt": 3188,
      "engine": 3189,
      "engage": 3190,
      "laughed": 3191,
      "promise": 3192,
      "structure": 3193,
      "limitations": 3194,
      "Although": 3195,
      "Come": 3196,
      "Enuma": 3197,
      "brief": 3198,
      "floor": 3199,
      "heavi": 3200,
      "message": 3201,
      "mysterious": 3202,
      "accustomed": 3203,
      "protect": 3204,
      "effortlessly": 3205,
      "dreams": 3206,
      "rotation": 3207,
      "location": 3208,
      "locked": 3209,
      "terms": 3210,
      "directly": 3211,
      "faintly": 3212,
      "innocence": 3213,
      "combat": 3214,
      "survive": 3215,
      "screamed": 3216,
      "--------------------------------": 3217,
      "snapped": 3218,
      "squadron": 3219,
      "demanded": 3220,
      "changed": 3221,
      "suggested": 3222,
      "reserves": 3223,
      "possibly": 3224,
      "possibility": 3225,
      "gleamed": 3226,
      "dawn": 3227,
      "variable": 3228,
      "lifted": 3229,
      "utterly": 3230,
      "notice": 3231,
      "smirk": 3232,
      "warmth": 3233,
      "approaching": 3234,
      "desperate": 3235,
      "recognizing": 3236,
      "politely": 3237,
      "Grand": 3238,
      "equal": 3239,
      "fading": 3240,
      "offered": 3241,
      "advantage": 3242,
      "creature": 3243,
      "clouds": 3244,
      "corpse": 3245,
      "collapse": 3246,
      "jaws": 3247,
      "accompl": 3248,
      "launched": 3249,
      "fragile": 3250,
      "experiment": 3251,
      "achieve": 3252,
      "Council": 3253,
      "Majesty": 3254,
      "elimin": 3255,
      "husband": 3256,
      "massive": 3257,
      "details": 3258,
      "demeanour": 3259,
      "widened": 3260,
      "uncertainty": 3261,
      "exactly": 3262,
      "quarters": 3263,
      "comrades": 3264,
      "opportunity": 3265,
      "carriage": 3266,
      "succumb": 3267,
      "Follow": 3268,
      "William": 3269,
      "coward": 3270,
      "facade": 3271,
      "piece": 3272,
      "tapestry": 3273,
      "thousand": 3274,
      "stomach": 3275,
      "bewildered": 3276,
      "considered": 3277,
      "emphas": 3278,
      "colossal": 3279,
      "provide": 3280,
      "obsidian": 3281,
      "difficult": 3282,
      "fundamental": 3283,
      "*,": 3284,
      "15": 3285,
      "23": 3286,
      "25": 3287,
      "AR": 3288,
      "CH": 3289,
      "Cre": 3290,
      "Con": 3291,
      "Dep": 3292,
      "Ex": 3293,
      "Ear": 3294,
      "Fr": 3295,
      "Faction": 3296,
      "Fourth": 3297,
      "Gre": 3298,
      "IN": 3299,
      "Im": 3300,
      "Judgment": 3301,
      "Life": 3302,
      "Me": 3303,
      "OM": 3304,
      "Power": 3305,
      "ST": 3306,
      "Sun": 3307,
      "Str": 3308,
      "Ste": 3309,
      "Sure": 3310,
      "Sage": 3311,
      "Slayer": 3312,
      "Still": 3313,
      "UN": 3314,
      "Wor": 3315,
      "Wisdom": 3316,
      "Ye": 3317,
      "YOU": 3318,
      "aff": 3319,
      "bon": 3320,
      "bow": 3321,
      "bir": 3322,
      "bag": 3323,
      "billions": 3324,
      "cried": 3325,
      "dar": 3326,
      "dain": 3327,
      "dust": 3328,
      "dance": 3329,
      "dig": 3330,
      "dared": 3331,
      "daring": 3332,
      "drif": 3333,
      "duty": 3334,
      "draw": 3335,
      "dumb": 3336,
      "dyn": 3337,
      "eu": 3338,
      "ech": 3339,
      "event": 3340,
      "fer": 3341,
      "fought": 3342,
      "fash": 3343,
      "gas": 3344,
      "gap": 3345,
      "gard": 3346,
      "gates": 3347,
      "hic": 3348,
      "hone": 3349,
      "hide": 3350,
      "ium": 3351,
      "itor": 3352,
      "iently": 3353,
      "len": 3354,
      "lower": 3355,
      "lines": 3356,
      "luck": 3357,
      "lady": 3358,
      "mic": 3359,
      "mod": 3360,
      "nal": 3361,
      "nine": 3362,
      "num": 3363,
      "narr": 3364,
      "oo": 3365,
      "ome": 3366,
      "oper": 3367,
      "obl": 3368,
      "obey": 3369,
      "pup": 3370,
      "push": 3371,
      "pier": 3372,
      "rate": 3373,
      "rain": 3374,
      "rough": 3375,
      "rum": 3376,
      "rint": 3377,
      "rage": 3378,
      "rushing": 3379,
      "sme": 3380,
      "sought": 3381,
      "sions": 3382,
      "size": 3383,
      "school": 3384,
      "tast": 3385,
      "tong": 3386,
      "tions": 3387,
      "uc": 3388,
      "va": 3389,
      "vity": 3390,
      "thri": 3391,
      "invisible": 3392,
      "rer": 3393,
      "rew": 3394,
      "rela": 3395,
      "relie": 3396,
      "react": 3397,
      "reappeared": 3398,
      "receive": 3399,
      "regener": 3400,
      "reanim": 3401,
      "repair": 3402,
      "theory": 3403,
      "anx": 3404,
      "ert": 3405,
      "ery": 3406,
      "erase": 3407,
      "oured": 3408,
      "aty": 3409,
      "atop": 3410,
      "enem": 3411,
      "engu": 3412,
      "envoy": 3413,
      "sting": 3414,
      "stir": 3415,
      "stam": 3416,
      "stay": 3417,
      "stine": 3418,
      "tom": 3419,
      "asy": 3420,
      "assu": 3421,
      "assum": 3422,
      "associ": 3423,
      "oring": 3424,
      "iss": 3425,
      "ising": 3426,
      "altered": 3427,
      "alizing": 3428,
      "heed": 3429,
      "iter": 3430,
      "itting": 3431,
      "seized": 3432,
      "deem": 3433,
      "dete": 3434,
      "deci": 3435,
      "desk": 3436,
      "defi": 3437,
      "deftly": 3438,
      "bear": 3439,
      "beha": 3440,
      "bearing": 3441,
      "becoming": 3442,
      "list": 3443,
      "lies": 3444,
      "living": 3445,
      "libri": 3446,
      "liches": 3447,
      "ché": 3448,
      "cham": 3449,
      "chuck": 3450,
      "omen": 3451,
      "adam": 3452,
      "adventure": 3453,
      "advanced": 3454,
      "entry": 3455,
      "icked": 3456,
      "unknown": 3457,
      "unyield": 3458,
      "unstable": 3459,
      "unparalle": 3460,
      "ache": 3461,
      "acity": 3462,
      "acking": 3463,
      "acies": 3464,
      "access": 3465,
      "vert": 3466,
      "version": 3467,
      "iding": 3468,
      "idly": 3469,
      "wear": 3470,
      "ounced": 3471,
      "shim": 3472,
      "shore": 3473,
      "shape": 3474,
      "shield": 3475,
      "whip": 3476,
      "imb": 3477,
      "immin": 3478,
      "robe": 3479,
      "rodu": 3480,
      "appreci": 3481,
      "noise": 3482,
      "conj": 3483,
      "conqu": 3484,
      "concent": 3485,
      "consum": 3486,
      "consequ": 3487,
      "allow": 3488,
      "allure": 3489,
      "neither": 3490,
      "resili": 3491,
      "loy": 3492,
      "lock": 3493,
      "soared": 3494,
      "aby": 3495,
      "absor": 3496,
      "manage": 3497,
      "tial": 3498,
      "fra": 3499,
      "exe": 3500,
      "worn": 3501,
      "ilar": 3502,
      "ctu": 3503,
      "voking": 3504,
      "outline": 3505,
      "save": 3506,
      "safe": 3507,
      "max": 3508,
      "math": 3509,
      "haunted": 3510,
      "hazy": 3511,
      "indul": 3512,
      "grown": 3513,
      "group": 3514,
      "ulated": 3515,
      "compe": 3516,
      "comfort": 3517,
      "tearing": 3518,
      "harm": 3519,
      "harder": 3520,
      "endure": 3521,
      "nowhere": 3522,
      "mood": 3523,
      "mocker": 3524,
      "strous": 3525,
      "opul": 3526,
      "ety": 3527,
      "ences": 3528,
      "voices": 3529,
      "yourself": 3530,
      "blin": 3531,
      "blink": 3532,
      "code": 3533,
      "prob": 3534,
      "proof": 3535,
      "proper": 3536,
      "prospect": 3537,
      "proceed": 3538,
      "istic": 3539,
      "lessness": 3540,
      "eling": 3541,
      "pressing": 3542,
      "remon": 3543,
      "remark": 3544,
      "plays": 3545,
      "itect": 3546,
      "actual": 3547,
      "speaking": 3548,
      "speech": 3549,
      "brown": 3550,
      "braced": 3551,
      "brink": 3552,
      "surpas": 3553,
      "surrender": 3554,
      "scr": 3555,
      "scene": 3556,
      "scended": 3557,
      "contribut": 3558,
      "uses": 3559,
      "useless": 3560,
      "intact": 3561,
      "introdu": 3562,
      "wards": 3563,
      "Infinite": 3564,
      "Indeed": 3565,
      "please": 3566,
      "ckering": 3567,
      "ckoned": 3568,
      "pray": 3569,
      "princi": 3570,
      "Any": 3571,
      "lifeforce": 3572,
      "disappeared": 3573,
      "disdain": 3574,
      "bleed": 3575,
      "mattered": 3576,
      "backdrop": 3577,
      "home": 3578,
      "structed": 3579,
      "structive": 3580,
      "chose": 3581,
      "however": 3582,
      "died": 3583,
      "distr": 3584,
      "carving": 3585,
      "offering": 3586,
      "bodiment": 3587,
      "guy": 3588,
      "guys": 3589,
      "lighten": 3590,
      "crushed": 3591,
      "crashed": 3592,
      "iverse": 3593,
      "appears": 3594,
      "capabilities": 3595,
      "warping": 3596,
      "Sovereign": 3597,
      "curse": 3598,
      "tains": 3599,
      "helped": 3600,
      "forces": 3601,
      "clash": 3602,
      "dram": 3603,
      "drain": 3604,
      "plic": 3605,
      "instig": 3606,
      "instinctively": 3607,
      "architect": 3608,
      "gret": 3609,
      "great": 3610,
      "greet": 3611,
      "greater": 3612,
      "awa": 3613,
      "checked": 3614,
      "effe": 3615,
      "nique": 3616,
      "continue": 3617,
      "universal": 3618,
      "shouldn": 3619,
      "minal": 3620,
      "confess": 3621,
      "confused": 3622,
      "confirmed": 3623,
      "stepping": 3624,
      "tense": 3625,
      "reverence": 3626,
      "condition": 3627,
      "000": 3628,
      "freed": 3629,
      "enemy": 3630,
      "counter": 3631,
      "pristine": 3632,
      "member": 3633,
      "posal": 3634,
      "compan": 3635,
      "compound": 3636,
      "aftermath": 3637,
      "swim": 3638,
      "resting": 3639,
      "burn": 3640,
      "buy": 3641,
      "buff": 3642,
      "berate": 3643,
      "mured": 3644,
      "windows": 3645,
      "refer": 3646,
      "movement": 3647,
      "cutting": 3648,
      "holds": 3649,
      "rippled": 3650,
      "flat": 3651,
      "flashed": 3652,
      "pull": 3653,
      "publ": 3654,
      "pulling": 3655,
      "sinister": 3656,
      "arms": 3657,
      "corner": 3658,
      "corrup": 3659,
      "suppose": 3660,
      "figures": 3661,
      "glowed": 3662,
      "function": 3663,
      "pathy": 3664,
      "interrup": 3665,
      "regained": 3666,
      "stopped": 3667,
      "stopping": 3668,
      "helpless": 3669,
      "physically": 3670,
      "trembled": 3671,
      "certainly": 3672,
      "paid": 3673,
      "watch": 3674,
      "solution": 3675,
      "completing": 3676,
      "reminding": 3677,
      "ignite": 3678,
      "ignited": 3679,
      "blades": 3680,
      "circling": 3681,
      "circles": 3682,
      "cular": 3683,
      "touched": 3684,
      "touching": 3685,
      "writing": 3686,
      "attacks": 3687,
      "brother": 3688,
      "killing": 3689,
      "slaves": 3690,
      "radiated": 3691,
      "cycle": 3692,
      "cycles": 3693,
      "duel": 3694,
      "humility": 3695,
      "vicious": 3696,
      "resonating": 3697,
      "difference": 3698,
      "120": 3699,
      "benevol": 3700,
      "pondered": 3701,
      "similar": 3702,
      "velocity": 3703,
      "transm": 3704,
      "transcended": 3705,
      "settled": 3706,
      "flickering": 3707,
      "treaty": 3708,
      "shatter": 3709,
      "potentially": 3710,
      "pattern": 3711,
      "spoken": 3712,
      "spirits": 3713,
      "color": 3714,
      "viewer": 3715,
      "prisoner": 3716,
      "prisoners": 3717,
      "explosion": 3718,
      "exploded": 3719,
      "threatened": 3720,
      "reincarnation": 3721,
      "flaw": 3722,
      "leading": 3723,
      "manipulated": 3724,
      "manipulating": 3725,
      "ibly": 3726,
      "mistake": 3727,
      "challenging": 3728,
      "promp": 3729,
      "Realizing": 3730,
      "gnaw": 3731,
      "experienced": 3732,
      "protective": 3733,
      "effortless": 3734,
      "particles": 3735,
      "bitter": 3736,
      "sweet": 3737,
      "leaped": 3738,
      "imagination": 3739,
      "displayed": 3740,
      "affor": 3741,
      "dimly": 3742,
      "usually": 3743,
      "defying": 3744,
      "nearly": 3745,
      "specific": 3746,
      "survival": 3747,
      "screaming": 3748,
      "vibrant": 3749,
      "vibrating": 3750,
      "dominion": 3751,
      "dominance": 3752,
      "struggled": 3753,
      "limbs": 3754,
      "channeled": 3755,
      "Once": 3756,
      "Only": 3757,
      "future": 3758,
      "delicate": 3759,
      "superior": 3760,
      "teacher": 3761,
      "dawned": 3762,
      "mounting": 3763,
      "mountains": 3764,
      "risk": 3765,
      "rapidly": 3766,
      "various": 3767,
      "notific": 3768,
      "smirked": 3769,
      "prevented": 3770,
      "countless": 3771,
      "occurred": 3772,
      "occurrence": 3773,
      "Vampire": 3774,
      "Vampires": 3775,
      "athed": 3776,
      "crossing": 3777,
      "easily": 3778,
      "favor": 3779,
      "glimmer": 3780,
      "adversary": 3781,
      "bullets": 3782,
      "anticipation": 3783,
      "flooded": 3784,
      "grief": 3785,
      "murmured": 3786,
      "smoke": 3787,
      "tactic": 3788,
      "increas": 3789,
      "staircase": 3790,
      "defeated": 3791,
      "manifest": 3792,
      "inevitable": 3793,
      "pleasant": 3794,
      "cracks": 3795,
      "crumble": 3796,
      "acknowledging": 3797,
      "Moreover": 3798,
      "TION": 3799,
      "equilibri": 3800,
      "loudly": 3801,
      "nuclear": 3802,
      "races": 3803,
      "tugging": 3804,
      "ascended": 3805,
      "several": 3806,
      "vectors": 3807,
      "considering": 3808,
      "provided": 3809,
      "violently": 3810,
      "importance": 3811,
      "foolish": 3812,
      "metallic": 3813,
      "enthusiast": 3814,
      "mesmerizing": 3815,
      "Class": 3816,
      "cliché": 3817,
      "ruler": 3818,
      "assistance": 3819,
      "mythical": 3820,
      "admitted": 3821,
      "absence": 3822,
      "occupied": 3823,
      "heavier": 3824,
      "eliminate": 3825,
      "Surely": 3826,
      "World": 3827,
      "fashion": 3828,
      "honest": 3829,
      "obliter": 3830,
      "tasted": 3831,
      "tongue": 3832,
      "relax": 3833,
      "reanimated": 3834,
      "enemies": 3835,
      "engulf": 3836,
      "assume": 3837,
      "behavi": 3838,
      "unyielding": 3839,
      "unparalleled": 3840,
      "shimmered": 3841,
      "whipping": 3842,
      "imminent": 3843,
      "resilience": 3844,
      "indulge": 3845,
      "mockery": 3846,
      "carvings": 3847,
      "equilibrium": 3848,
      "*—": 3849,
      ".’": 3850,
      "24": 3851,
      "30": 3852,
      "45": 3853,
      "49": 3854,
      "900": 3855,
      "AG": 3856,
      "Ab": 3857,
      "Am": 3858,
      "Bo": 3859,
      "By": 3860,
      "Bre": 3861,
      "Bar": 3862,
      "Bla": 3863,
      "Brit": 3864,
      "Cad": 3865,
      "Cap": 3866,
      "Cha": 3867,
      "DE": 3868,
      "Dr": 3869,
      "Dark": 3870,
      "EN": 3871,
      "ER": 3872,
      "Fire": 3873,
      "Fear": 3874,
      "Gu": 3875,
      "Good": 3876,
      "Hal": 3877,
      "Have": 3878,
      "IC": 3879,
      "Jo": 3880,
      "Jon": 3881,
      "KIL": 3882,
      "LE": 3883,
      "LI": 3884,
      "Last": 3885,
      "Mem": 3886,
      "MON": 3887,
      "Most": 3888,
      "Ne": 3889,
      "Never": 3890,
      "Nik": 3891,
      "Out": 3892,
      "Pe": 3893,
      "Qu": 3894,
      "Que": 3895,
      "Ro": 3896,
      "Rick": 3897,
      "Roman": 3898,
      "Sh": 3899,
      "Sy": 3900,
      "Sor": 3901,
      "Stop": 3902,
      "Ty": 3903,
      "Ter": 3904,
      "Tar": 3905,
      "Tem": 3906,
      "Take": 3907,
      "Upon": 3908,
      "Was": 3909,
      "ah": 3910,
      "ai": 3911,
      "aimed": 3912,
      "ben": 3913,
      "bone": 3914,
      "bus": 3915,
      "bust": 3916,
      "bend": 3917,
      "bill": 3918,
      "bast": 3919,
      "bother": 3920,
      "bright": 3921,
      "biting": 3922,
      "bility": 3923,
      "bathed": 3924,
      "core": 3925,
      "cop": 3926,
      "coffe": 3927,
      "dun": 3928,
      "dry": 3929,
      "dying": 3930,
      "dripping": 3931,
      "drew": 3932,
      "ease": 3933,
      "eons": 3934,
      "elect": 3935,
      "fill": 3936,
      "fine": 3937,
      "fang": 3938,
      "flic": 3939,
      "gut": 3940,
      "gained": 3941,
      "grip": 3942,
      "gripped": 3943,
      "hour": 3944,
      "hours": 3945,
      "ired": 3946,
      "iest": 3947,
      "ived": 3948,
      "iety": 3949,
      "km": 3950,
      "kn": 3951,
      "kick": 3952,
      "kines": 3953,
      "lu": 3954,
      "lan": 3955,
      "lat": 3956,
      "lad": 3957,
      "lur": 3958,
      "lun": 3959,
      "lone": 3960,
      "lust": 3961,
      "lush": 3962,
      "liness": 3963,
      "lung": 3964,
      "llect": 3965,
      "later": 3966,
      "men": 3967,
      "mut": 3968,
      "mour": 3969,
      "mend": 3970,
      "mering": 3971,
      "mass": 3972,
      "nar": 3973,
      "nap": 3974,
      "nath": 3975,
      "nav": 3976,
      "numb": 3977,
      "oce": 3978,
      "othing": 3979,
      "oting": 3980,
      "osing": 3981,
      "oak": 3982,
      "osphere": 3983,
      "ozone": 3984,
      "py": 3985,
      "pin": 3986,
      "pid": 3987,
      "pher": 3988,
      "pity": 3989,
      "pire": 3990,
      "paw": 3991,
      "pentarchy": 3992,
      "ported": 3993,
      "rance": 3994,
      "rise": 3995,
      "rarely": 3996,
      "sy": 3997,
      "site": 3998,
      "sana": 3999,
      "swit": 4000,
      "sank": 4001,
      "tly": 4002,
      "uge": 4003,
      "uep": 4004,
      "vlo": 4005,
      "vort": 4006,
      "wed": 4007,
      "wri": 4008,
      "wound": 4009,
      "wings": 4010,
      "women": 4011,
      "xur": 4012,
      "yes": 4013,
      "zan": 4014,
      "zen": 4015,
      "íto": 4016,
      "Šan": 4017,
      "thick": 4018,
      "inqu": 4019,
      "inating": 4020,
      "incl": 4021,
      "inade": 4022,
      "infli": 4023,
      "incompreh": 4024,
      "inner": 4025,
      "inquire": 4026,
      "indeed": 4027,
      "influ": 4028,
      "invoking": 4029,
      "ree": 4030,
      "refe": 4031,
      "refr": 4032,
      "requi": 4033,
      "recti": 4034,
      "required": 4035,
      "revol": 4036,
      "relic": 4037,
      "reject": 4038,
      "represent": 4039,
      "rejected": 4040,
      "release": 4041,
      "recalling": 4042,
      "regret": 4043,
      "theless": 4044,
      "edged": 4045,
      "ancing": 4046,
      "era": 4047,
      "eras": 4048,
      "erous": 4049,
      "erup": 4050,
      "erished": 4051,
      "ats": 4052,
      "atom": 4053,
      "atti": 4054,
      "attr": 4055,
      "atform": 4056,
      "ative": 4057,
      "atitude": 4058,
      "enh": 4059,
      "eness": 4060,
      "enjo": 4061,
      "enorm": 4062,
      "enjoy": 4063,
      "ensible": 4064,
      "enlighten": 4065,
      "stre": 4066,
      "stall": 4067,
      "sture": 4068,
      "stig": 4069,
      "stical": 4070,
      "stantly": 4071,
      "stuck": 4072,
      "asper": 4073,
      "assess": 4074,
      "assured": 4075,
      "orate": 4076,
      "orient": 4077,
      "ism": 4078,
      "issu": 4079,
      "ission": 4080,
      "isol": 4081,
      "arming": 4082,
      "arison": 4083,
      "aline": 4084,
      "alig": 4085,
      "altit": 4086,
      "alarming": 4087,
      "height": 4088,
      "iton": 4089,
      "itize": 4090,
      "melan": 4091,
      "leaned": 4092,
      "leaning": 4093,
      "mystical": 4094,
      "secur": 4095,
      "search": 4096,
      "searing": 4097,
      "select": 4098,
      "ceived": 4099,
      "owd": 4100,
      "depar": 4101,
      "design": 4102,
      "developed": 4103,
      "derer": 4104,
      "destructive": 4105,
      "beside": 4106,
      "beckoned": 4107,
      "lied": 4108,
      "lict": 4109,
      "lived": 4110,
      "chil": 4111,
      "charm": 4112,
      "chron": 4113,
      "chains": 4114,
      "chilling": 4115,
      "cherished": 4116,
      "wife": 4117,
      "omni": 4118,
      "ional": 4119,
      "vehic": 4120,
      "aded": 4121,
      "ader": 4122,
      "ading": 4123,
      "adic": 4124,
      "adren": 4125,
      "addres": 4126,
      "entially": 4127,
      "entrance": 4128,
      "llar": 4129,
      "espe": 4130,
      "escal": 4131,
      "icient": 4132,
      "unve": 4133,
      "unless": 4134,
      "unden": 4135,
      "undoub": 4136,
      "unnoticed": 4137,
      "unnatural": 4138,
      "unmistak": 4139,
      "unmatched": 4140,
      "unchecked": 4141,
      "unspoken": 4142,
      "uter": 4143,
      "utiful": 4144,
      "iris": 4145,
      "irvoy": 4146,
      "youn": 4147,
      "forcing": 4148,
      "acti": 4149,
      "acter": 4150,
      "acting": 4151,
      "acquired": 4152,
      "versing": 4153,
      "verbal": 4154,
      "identity": 4155,
      "wel": 4156,
      "weaving": 4157,
      "weird": 4158,
      "shed": 4159,
      "shot": 4160,
      "showing": 4161,
      "shimm": 4162,
      "whom": 4163,
      "riors": 4164,
      "agged": 4165,
      "aggres": 4166,
      "role": 4167,
      "roots": 4168,
      "supre": 4169,
      "sucker": 4170,
      "suicide": 4171,
      "apo": 4172,
      "lace": 4173,
      "laid": 4174,
      "kest": 4175,
      "kered": 4176,
      "convent": 4177,
      "condescending": 4178,
      "nest": 4179,
      "neared": 4180,
      "necess": 4181,
      "ress": 4182,
      "resent": 4183,
      "resur": 4184,
      "resource": 4185,
      "losing": 4186,
      "petal": 4187,
      "amused": 4188,
      "amount": 4189,
      "soaring": 4190,
      "solace": 4191,
      "abund": 4192,
      "abrupt": 4193,
      "managing": 4194,
      "mansions": 4195,
      "odds": 4196,
      "ties": 4197,
      "tified": 4198,
      "tizan": 4199,
      "friction": 4200,
      "embar": 4201,
      "embarr": 4202,
      "embodiment": 4203,
      "exter": 4204,
      "exasper": 4205,
      "gered": 4206,
      "ctions": 4207,
      "tery": 4208,
      "track": 4209,
      "traged": 4210,
      "posture": 4211,
      "voke": 4212,
      "ifying": 4213,
      "quake": 4214,
      "saying": 4215,
      "mare": 4216,
      "grave": 4217,
      "grues": 4218,
      "gratitude": 4219,
      "complied": 4220,
      "compressed": 4221,
      "tee": 4222,
      "telling": 4223,
      "ustion": 4224,
      "peril": 4225,
      "notion": 4226,
      "mode": 4227,
      "stranger": 4228,
      "opin": 4229,
      "opposing": 4230,
      "opposition": 4231,
      "options": 4232,
      "forest": 4233,
      "olding": 4234,
      "illac": 4235,
      "powerless": 4236,
      "tedly": 4237,
      "spare": 4238,
      "spital": 4239,
      "sprang": 4240,
      "blinding": 4241,
      "bluep": 4242,
      "cost": 4243,
      "coco": 4244,
      "coordin": 4245,
      "cosmic": 4246,
      "timelines": 4247,
      "sometimes": 4248,
      "doing": 4249,
      "doom": 4250,
      "dollar": 4251,
      "owned": 4252,
      "elud": 4253,
      "press": 4254,
      "preser": 4255,
      "umstance": 4256,
      "umulated": 4257,
      "willingly": 4258,
      "mented": 4259,
      "playing": 4260,
      "plains": 4261,
      "actical": 4262,
      "brushed": 4263,
      "plum": 4264,
      "platform": 4265,
      "attend": 4266,
      "scor": 4267,
      "scal": 4268,
      "scured": 4269,
      "scape": 4270,
      "scler": 4271,
      "contact": 4272,
      "rendered": 4273,
      "intended": 4274,
      "intention": 4275,
      "plea": 4276,
      "pleased": 4277,
      "smart": 4278,
      "serving": 4279,
      "preoccupied": 4280,
      "vivid": 4281,
      "proud": 4282,
      "practical": 4283,
      "thrown": 4284,
      "handle": 4285,
      "discovered": 4286,
      "creeping": 4287,
      "lowly": 4288,
      "nessing": 4289,
      "monstrous": 4290,
      "aved": 4291,
      "hot": 4292,
      "hospital": 4293,
      "raising": 4294,
      "taught": 4295,
      "takes": 4296,
      "sensing": 4297,
      "sensor": 4298,
      "foe": 4299,
      "otherwise": 4300,
      "former": 4301,
      "choosing": 4302,
      "lingering": 4303,
      "amplif": 4304,
      "sitting": 4305,
      "angle": 4306,
      "cially": 4307,
      "dial": 4308,
      "huge": 4309,
      "Firstly": 4310,
      "boots": 4311,
      "carved": 4312,
      "singular": 4313,
      "gued": 4314,
      "lightning": 4315,
      "crush": 4316,
      "cratic": 4317,
      "crowd": 4318,
      "games": 4319,
      "appearing": 4320,
      "momentum": 4321,
      "capital": 4322,
      "wars": 4323,
      "warped": 4324,
      "warriors": 4325,
      "fines": 4326,
      "finity": 4327,
      "finality": 4328,
      "centre": 4329,
      "centrif": 4330,
      "aken": 4331,
      "clas": 4332,
      "clad": 4333,
      "drast": 4334,
      "limits": 4335,
      "claim": 4336,
      "earlier": 4337,
      "visit": 4338,
      "visions": 4339,
      "viscer": 4340,
      "object": 4341,
      "obscured": 4342,
      "surely": 4343,
      "...\"": 4344,
      "ides": 4345,
      "lands": 4346,
      "begun": 4347,
      "grey": 4348,
      "greed": 4349,
      "check": 4350,
      "chemi": 4351,
      "cheek": 4352,
      "senses": 4353,
      "portion": 4354,
      "angels": 4355,
      "confirm": 4356,
      "confusion": 4357,
      "conflict": 4358,
      "personal": 4359,
      "headache": 4360,
      "typed": 4361,
      "typing": 4362,
      "wants": 4363,
      "assass": 4364,
      "directed": 4365,
      "ashing": 4366,
      "explain": 4367,
      "threw": 4368,
      "stern": 4369,
      "memories": 4370,
      "posses": 4371,
      "company": 4372,
      "compared": 4373,
      "comparison": 4374,
      "computer": 4375,
      "wolf": 4376,
      "restless": 4377,
      "burned": 4378,
      "burning": 4379,
      "genspire": 4380,
      "mingled": 4381,
      "nails": 4382,
      "agony": 4383,
      "trade": 4384,
      "signature": 4385,
      "refusing": 4386,
      "reflect": 4387,
      "days": 4388,
      "distorted": 4389,
      "slowed": 4390,
      "lasting": 4391,
      "controll": 4392,
      "controlled": 4393,
      "focating": 4394,
      "battles": 4395,
      "happy": 4396,
      "happen": 4397,
      "corrid": 4398,
      "glance": 4399,
      "glint": 4400,
      "higher": 4401,
      "parts": 4402,
      "partly": 4403,
      "ventured": 4404,
      "adept": 4405,
      "court": 4406,
      "coursing": 4407,
      "pathway": 4408,
      "Titles": 4409,
      "catch": 4410,
      "catching": 4411,
      "fury": 4412,
      "tremors": 4413,
      "vanishing": 4414,
      "valu": 4415,
      "valent": 4416,
      "pause": 4417,
      "paused": 4418,
      "parado": 4419,
      "watched": 4420,
      "employ": 4421,
      "sorry": 4422,
      "wondered": 4423,
      "completed": 4424,
      "***": 4425,
      "casually": 4426,
      "circle": 4427,
      "sounding": 4428,
      "reassured": 4429,
      "deadly": 4430,
      "attacked": 4431,
      "Desert": 4432,
      "family": 4433,
      "queen": 4434,
      "radiant": 4435,
      "dubbed": 4436,
      "faith": 4437,
      "mercy": 4438,
      "marble": 4439,
      "martial": 4440,
      "deserved": 4441,
      "character": 4442,
      "resonate": 4443,
      "logical": 4444,
      "awestruck": 4445,
      "finger": 4446,
      "flew": 4447,
      "flesh": 4448,
      "hoped": 4449,
      "ponder": 4450,
      "painful": 4451,
      "ugal": 4452,
      "connection": 4453,
      "transp": 4454,
      "settle": 4455,
      "double": 4456,
      "journal": 4457,
      "trees": 4458,
      "treated": 4459,
      "trepid": 4460,
      "temper": 4461,
      "walk": 4462,
      "wenty": 4463,
      "shattering": 4464,
      "exuding": 4465,
      "Unit": 4466,
      "jumping": 4467,
      "nightmare": 4468,
      "patience": 4469,
      "rub": 4470,
      "rule": 4471,
      "ternal": 4472,
      "surprised": 4473,
      "prepare": 4474,
      "explore": 4475,
      "dictates": 4476,
      "riches": 4477,
      "irony": 4478,
      "ships": 4479,
      "encounters": 4480,
      "sacrificed": 4481,
      "sacrificing": 4482,
      "colder": 4483,
      "horror": 4484,
      "tale": 4485,
      "talk": 4486,
      "talking": 4487,
      "vitality": 4488,
      "engaged": 4489,
      "challenge": 4490,
      "challenged": 4491,
      "challenges": 4492,
      "laughing": 4493,
      "resolute": 4494,
      "transform": 4495,
      "transformation": 4496,
      "graviton": 4497,
      "prompt": 4498,
      "limiter": 4499,
      "calculated": 4500,
      "Enough": 4501,
      "Regenspire": 4502,
      "brilli": 4503,
      "falling": 4504,
      "floating": 4505,
      "runes": 4506,
      "running": 4507,
      "twice": 4508,
      "intellect": 4509,
      "recover": 4510,
      "accumulated": 4511,
      "particle": 4512,
      "hurtled": 4513,
      "hesitate": 4514,
      "hesitated": 4515,
      "semblance": 4516,
      "becomes": 4517,
      "imagine": 4518,
      "imagined": 4519,
      "solely": 4520,
      "extent": 4521,
      "extinct": 4522,
      "observing": 4523,
      "observation": 4524,
      "affinity": 4525,
      "gaining": 4526,
      "halluc": 4527,
      "predic": 4528,
      "predict": 4529,
      "predator": 4530,
      "confrontation": 4531,
      "technique": 4532,
      "species": 4533,
      "attempts": 4534,
      "precision": 4535,
      "struggle": 4536,
      "struggles": 4537,
      "freezing": 4538,
      "dropping": 4539,
      "weaponry": 4540,
      "snapping": 4541,
      "avoided": 4542,
      "faster": 4543,
      "mirror": 4544,
      "pale": 4545,
      "squarely": 4546,
      "inspiration": 4547,
      "beautiful": 4548,
      "changing": 4549,
      "childhood": 4550,
      "reserve": 4551,
      "Something": 4552,
      "gleaming": 4553,
      "Att": 4554,
      "Flowers": 4555,
      "boring": 4556,
      "elements": 4557,
      "firmly": 4558,
      "normal": 4559,
      "rising": 4560,
      "alongside": 4561,
      "desired": 4562,
      "entertain": 4563,
      "expecting": 4564,
      "expectations": 4565,
      "grinned": 4566,
      "preventing": 4567,
      "discussion": 4568,
      "choices": 4569,
      "crucial": 4570,
      "regaining": 4571,
      "wondering": 4572,
      "recognized": 4573,
      "Empire": 4574,
      "eagerly": 4575,
      "faded": 4576,
      "wielded": 4577,
      "adversaries": 4578,
      "astonishment": 4579,
      "astonishing": 4580,
      "creatures": 4581,
      "clouded": 4582,
      "barrage": 4583,
      "mistaken": 4584,
      "precisely": 4585,
      "anticipated": 4586,
      "Everything": 4587,
      "Prince": 4588,
      "murderer": 4589,
      "muscles": 4590,
      "pounding": 4591,
      "pulsed": 4592,
      "tactics": 4593,
      "innate": 4594,
      "resemblance": 4595,
      "stairs": 4596,
      "devil": 4597,
      "impress": 4598,
      "resistance": 4599,
      "manifested": 4600,
      "tightened": 4601,
      "grappling": 4602,
      "established": 4603,
      "guides": 4604,
      "crackled": 4605,
      "clarity": 4606,
      "intrigued": 4607,
      "intriguing": 4608,
      "Elven": 4609,
      "Elves": 4610,
      "True": 4611,
      "Tríto": 4612,
      "craf": 4613,
      "damage": 4614,
      "damaged": 4615,
      "larger": 4616,
      "swam": 4617,
      "swung": 4618,
      "sombre": 4619,
      "tapping": 4620,
      "involves": 4621,
      "repeated": 4622,
      "aneously": 4623,
      "stunned": 4624,
      "omniverse": 4625,
      "conveyed": 4626,
      "example": 4627,
      "trouble": 4628,
      "troubled": 4629,
      "indicating": 4630,
      "propelling": 4631,
      "contentment": 4632,
      "gathering": 4633,
      "earthquake": 4634,
      "circled": 4635,
      "circumstance": 4636,
      "written": 4637,
      "Secondly": 4638,
      "enchanting": 4639,
      "secretary": 4640,
      "acceleration": 4641,
      "Addition": 4642,
      "Pope": 4643,
      "brimming": 4644,
      "froze": 4645,
      "fantasy": 4646,
      "groaned": 4647,
      "marks": 4648,
      "penetrating": 4649,
      "sneak": 4650,
      "synchron": 4651,
      "yearned": 4652,
      "zzling": 4653,
      "incredible": 4654,
      "result": 4655,
      "announced": 4656,
      "annihilate": 4657,
      "envy": 4658,
      "belonged": 4659,
      "unleashed": 4660,
      "suffocating": 4661,
      "laws": 4662,
      "neutral": 4663,
      "machines": 4664,
      "illuminated": 4665,
      "Angel": 4666,
      "implore": 4667,
      "civilization": 4668,
      "diplomacy": 4669,
      "currently": 4670,
      "fortunate": 4671,
      "failures": 4672,
      "succumbing": 4673,
      "Creation": 4674,
      "Deputy": 4675,
      "Earth": 4676,
      "Great": 4677,
      "ING": 4678,
      "Yeah": 4679,
      "bonds": 4680,
      "darkest": 4681,
      "drifted": 4682,
      "dumbfounded": 4683,
      "length": 4684,
      "lucky": 4685,
      "operate": 4686,
      "roughly": 4687,
      "rints": 4688,
      "relief": 4689,
      "anxiety": 4690,
      "assuming": 4691,
      "decide": 4692,
      "chamber": 4693,
      "chuckled": 4694,
      "adamant": 4695,
      "imbued": 4696,
      "robes": 4697,
      "appreciate": 4698,
      "conjured": 4699,
      "conquer": 4700,
      "consumed": 4701,
      "abyss": 4702,
      "absorbed": 4703,
      "opulence": 4704,
      "blinked": 4705,
      "property": 4706,
      "remarkable": 4707,
      "contribute": 4708,
      "principles": 4709,
      "Anyway": 4710,
      "bleeding": 4711,
      "dramatic": 4712,
      "instigator": 4713,
      "greeted": 4714,
      "confessed": 4715,
      "freedom": 4716,
      "companion": 4717,
      "interrupted": 4718,
      "benevolence": 4719,
      "transmission": 4720,
      "afford": 4721,
      "notification": 4722,
      "obliterate": 4723,
      "engulfed": 4724,
      "behaviour": 4725,
      "Absolute": 4726,
      "Bartizan": 4727,
      "British": 4728,
      "Cadillac": 4729,
      "Captain": 4730,
      "Chaos": 4731,
      "Dragon": 4732,
      "Half": 4733,
      "Jonnath": 4734,
      "KILL": 4735,
      "Memories": 4736,
      "Nikvlo": 4737,
      "Quite": 4738,
      "Queen": 4739,
      "Sybill": 4740,
      "Temple": 4741,
      "bastard": 4742,
      "coffee": 4743,
      "dunes": 4744,
      "electric": 4745,
      "fangs": 4746,
      "flickered": 4747,
      "kinesis": 4748,
      "luxur": 4749,
      "lurking": 4750,
      "lunged": 4751,
      "navig": 4752,
      "numbers": 4753,
      "ocean": 4754,
      "pawn": 4755,
      "sym": 4756,
      "vortex": 4757,
      "Šanā": 4758,
      "inadequ": 4759,
      "incomprehensible": 4760,
      "referee": 4761,
      "requires": 4762,
      "erupted": 4763,
      "atoms": 4764,
      "attire": 4765,
      "stalls": 4766,
      "altitude": 4767,
      "melancho": 4768,
      "searching": 4769,
      "departed": 4770,
      "chilly": 4771,
      "vehicle": 4772,
      "adrenaline": 4773,
      "especially": 4774,
      "undoubtedly": 4775,
      "unmistakable": 4776,
      "irvoyance": 4777,
      "shimmering": 4778,
      "aggressive": 4779,
      "supreme": 4780,
      "necessary": 4781,
      "tragedy": 4782,
      "gruesome": 4783,
      "blueprints": 4784,
      "eluded": 4785,
      "sclera": 4786,
      "amplifying": 4787,
      "centrifugal": 4788,
      "chemistry": 4789,
      "possesses": 4790,
      "paradox": 4791,
      "trepidation": 4792,
      "Trítos": 4793,
      "circumstances": 4794,
      "Additionally": 4795,
      "Jonnathan": 4796,
      "Sybilla": 4797,
      "%,": 4798,
      "%.": 4799,
      ",'": 4800,
      ".'": 4801,
      "16": 4802,
      "19": 4803,
      "22": 4804,
      "28": 4805,
      "200": 4806,
      "35": 4807,
      "47": 4808,
      "56": 4809,
      "500": 4810,
      "60": 4811,
      "74": 4812,
      "78": 4813,
      "79": 4814,
      "83": 4815,
      "93": 4816,
      "AB": 4817,
      "AM": 4818,
      "AS": 4819,
      "Ano": 4820,
      "Acti": 4821,
      "ATION": 4822,
      "Bes": 4823,
      "Bored": 4824,
      "Billions": 4825,
      "CE": 4826,
      "Ca": 4827,
      "Cent": 4828,
      "Cla": 4829,
      "Could": 4830,
      "CTE": 4831,
      "Comb": 4832,
      "Di": 4833,
      "Du": 4834,
      "Dis": 4835,
      "Did": 4836,
      "Day": 4837,
      "Dict": 4838,
      "Eve": 4839,
      "Eternal": 4840,
      "Fund": 4841,
      "Father": 4842,
      "Go": 4843,
      "Gone": 4844,
      "HI": 4845,
      "HY": 4846,
      "Hu": 4847,
      "IQ": 4848,
      "IT": 4849,
      "Iron": 4850,
      "Isn": 4851,
      "IRE": 4852,
      "Jap": 4853,
      "Know": 4854,
      "Ksir": 4855,
      "Killing": 4856,
      "Land": 4857,
      "Long": 4858,
      "Lead": 4859,
      "Loc": 4860,
      "Man": 4861,
      "Mort": 4862,
      "Mage": 4863,
      "Mount": 4864,
      "Miss": 4865,
      "MAG": 4866,
      "NI": 4867,
      "Next": 4868,
      "OR": 4869,
      "Of": 4870,
      "Ok": 4871,
      "Other": 4872,
      "OOM": 4873,
      "Pa": 4874,
      "Pest": 4875,
      "Poc": 4876,
      "Pushing": 4877,
      "RA": 4878,
      "Res": 4879,
      "Rest": 4880,
      "SU": 4881,
      "Spe": 4882,
      "Sod": 4883,
      "Shad": 4884,
      "Sire": 4885,
      "Sup": 4886,
      "Sey": 4887,
      "STE": 4888,
      "Since": 4889,
      "Sitting": 4890,
      "Snap": 4891,
      "SIRE": 4892,
      "Te": 4893,
      "Tz": 4894,
      "Tower": 4895,
      "Tele": 4896,
      "Twenty": 4897,
      "UE": 4898,
      "Use": 4899,
      "Usu": 4900,
      "VE": 4901,
      "Will": 4902,
      "Writ": 4903,
      "Wicked": 4904,
      "WHY": 4905,
      "ax": 4906,
      "aqu": 4907,
      "athing": 4908,
      "auth": 4909,
      "ades": 4910,
      "aiming": 4911,
      "bat": 4912,
      "bly": 4913,
      "bent": 4914,
      "bun": 4915,
      "bid": 4916,
      "bab": 4917,
      "bure": 4918,
      "bless": 4919,
      "bum": 4920,
      "bite": 4921,
      "bish": 4922,
      "bush": 4923,
      "bot": 4924,
      "bering": 4925,
      "bili": 4926,
      "blast": 4927,
      "blic": 4928,
      "bowing": 4929,
      "blog": 4930,
      "bided": 4931,
      "bject": 4932,
      "bidden": 4933,
      "binding": 4934,
      "blocked": 4935,
      "blist": 4936,
      "block": 4937,
      "cam": 4938,
      "card": 4939,
      "cough": 4940,
      "cance": 4941,
      "cure": 4942,
      "cled": 4943,
      "cush": 4944,
      "coff": 4945,
      "clic": 4946,
      "cably": 4947,
      "ciful": 4948,
      "dth": 4949,
      "dat": 4950,
      "dur": 4951,
      "dled": 4952,
      "dang": 4953,
      "dread": 4954,
      "dwell": 4955,
      "dude": 4956,
      "danced": 4957,
      "dancing": 4958,
      "eve": 4959,
      "ela": 4960,
      "eem": 4961,
      "east": 4962,
      "eble": 4963,
      "ego": 4964,
      "eleg": 4965,
      "erect": 4966,
      "elier": 4967,
      "fy": 4968,
      "fed": 4969,
      "fit": 4970,
      "fly": 4971,
      "fil": 4972,
      "fish": 4973,
      "fresh": 4974,
      "flight": 4975,
      "fade": 4976,
      "fiction": 4977,
      "fusion": 4978,
      "flying": 4979,
      "fourth": 4980,
      "faltered": 4981,
      "gan": 4982,
      "gor": 4983,
      "gar": 4984,
      "gal": 4985,
      "gla": 4986,
      "gation": 4987,
      "gem": 4988,
      "gence": 4989,
      "gist": 4990,
      "gory": 4991,
      "grot": 4992,
      "gripping": 4993,
      "giti": 4994,
      "ggered": 4995,
      "hon": 4996,
      "hou": 4997,
      "hat": 4998,
      "hab": 4999,
      "hate": 5000,
      "hore": 5001,
      "hist": 5002,
      "hys": 5003,
      "hinted": 5004,
      "ia": 5005,
      "io": 5006,
      "iate": 5007,
      "iance": 5008,
      "iose": 5009,
      "iency": 5010,
      "iably": 5011,
      "iots": 5012,
      "ju": 5013,
      "jagged": 5014,
      "kin": 5015,
      "ker": 5016,
      "kid": 5017,
      "kni": 5018,
      "kai": 5019,
      "lting": 5020,
      "lum": 5021,
      "lining": 5022,
      "mp": 5023,
      "ms": 5024,
      "mit": 5025,
      "mone": 5026,
      "mil": 5027,
      "mble": 5028,
      "mused": 5029,
      "mhole": 5030,
      "nt": 5031,
      "ny": 5032,
      "nes": 5033,
      "nate": 5034,
      "nations": 5035,
      "nants": 5036,
      "og": 5037,
      "oy": 5038,
      "ocity": 5039,
      "ogue": 5040,
      "oeu": 5041,
      "pen": 5042,
      "pow": 5043,
      "pha": 5044,
      "pack": 5045,
      "pact": 5046,
      "pable": 5047,
      "pile": 5048,
      "psed": 5049,
      "pical": 5050,
      "pained": 5051,
      "pict": 5052,
      "pinn": 5053,
      "premon": 5054,
      "rin": 5055,
      "rare": 5056,
      "ray": 5057,
      "rated": 5058,
      "rous": 5059,
      "rase": 5060,
      "rors": 5061,
      "racing": 5062,
      "rhy": 5063,
      "sity": 5064,
      "send": 5065,
      "sire": 5066,
      "sco": 5067,
      "scan": 5068,
      "sort": 5069,
      "swell": 5070,
      "slay": 5071,
      "swarm": 5072,
      "slayer": 5073,
      "ton": 5074,
      "tun": 5075,
      "tro": 5076,
      "tend": 5077,
      "tise": 5078,
      "tempt": 5079,
      "toned": 5080,
      "twin": 5081,
      "ull": 5082,
      "uous": 5083,
      "uff": 5084,
      "ugl": 5085,
      "vac": 5086,
      "vate": 5087,
      "vul": 5088,
      "vant": 5089,
      "vish": 5090,
      "vage": 5091,
      "ww": 5092,
      "wing": 5093,
      "whe": 5094,
      "wond": 5095,
      "wined": 5096,
      "waved": 5097,
      "yle": 5098,
      "ych": 5099,
      "zones": 5100,
      "…”": 5101,
      "thic": 5102,
      "thir": 5103,
      "thren": 5104,
      "thirst": 5105,
      "thud": 5106,
      "thrived": 5107,
      "thmic": 5108,
      "inve": 5109,
      "incon": 5110,
      "inhere": 5111,
      "inhuman": 5112,
      "inched": 5113,
      "inced": 5114,
      "inching": 5115,
      "inappro": 5116,
      "infur": 5117,
      "insight": 5118,
      "incoming": 5119,
      "inject": 5120,
      "informed": 5121,
      "initi": 5122,
      "incorrect": 5123,
      "instructed": 5124,
      "inhab": 5125,
      "reen": 5126,
      "reme": 5127,
      "rele": 5128,
      "rely": 5129,
      "reun": 5130,
      "reck": 5131,
      "retain": 5132,
      "recall": 5133,
      "rected": 5134,
      "report": 5135,
      "reaction": 5136,
      "removed": 5137,
      "returning": 5138,
      "reacted": 5139,
      "reconnect": 5140,
      "rewards": 5141,
      "edges": 5142,
      "ediently": 5143,
      "anal": 5144,
      "anom": 5145,
      "anwhile": 5146,
      "ancy": 5147,
      "anium": 5148,
      "ern": 5149,
      "ero": 5150,
      "eradic": 5151,
      "onted": 5152,
      "ature": 5153,
      "atosphere": 5154,
      "encomp": 5155,
      "star": 5156,
      "stal": 5157,
      "stag": 5158,
      "stro": 5159,
      "stain": 5160,
      "stum": 5161,
      "static": 5162,
      "stripped": 5163,
      "stacle": 5164,
      "stuff": 5165,
      "tori": 5166,
      "toying": 5167,
      "tolled": 5168,
      "asm": 5169,
      "aser": 5170,
      "asking": 5171,
      "asoned": 5172,
      "assigned": 5173,
      "ashes": 5174,
      "oral": 5175,
      "orus": 5176,
      "orated": 5177,
      "organ": 5178,
      "ornate": 5179,
      "isingly": 5180,
      "army": 5181,
      "aration": 5182,
      "arized": 5183,
      "arched": 5184,
      "armed": 5185,
      "arches": 5186,
      "alas": 5187,
      "alous": 5188,
      "alies": 5189,
      "although": 5190,
      "alarm": 5191,
      "alleg": 5192,
      "alantly": 5193,
      "alpha": 5194,
      "heres": 5195,
      "hearing": 5196,
      "hearted": 5197,
      "heinous": 5198,
      "healing": 5199,
      "itly": 5200,
      "itage": 5201,
      "itants": 5202,
      "melt": 5203,
      "mechan": 5204,
      "lete": 5205,
      "lebr": 5206,
      "lepr": 5207,
      "lection": 5208,
      "leather": 5209,
      "ands": 5210,
      "anded": 5211,
      "anding": 5212,
      "andelier": 5213,
      "seam": 5214,
      "seep": 5215,
      "separ": 5216,
      "seeping": 5217,
      "seasoned": 5218,
      "cease": 5219,
      "ceiling": 5220,
      "ceremon": 5221,
      "ceress": 5222,
      "celebr": 5223,
      "deal": 5224,
      "dess": 5225,
      "demo": 5226,
      "defin": 5227,
      "devis": 5228,
      "derest": 5229,
      "deities": 5230,
      "depart": 5231,
      "develo": 5232,
      "devast": 5233,
      "deceive": 5234,
      "declar": 5235,
      "dealt": 5236,
      "bel": 5237,
      "bellow": 5238,
      "beloved": 5239,
      "liqu": 5240,
      "lided": 5241,
      "lified": 5242,
      "chin": 5243,
      "chant": 5244,
      "chill": 5245,
      "chorus": 5246,
      "chalantly": 5247,
      "chandelier": 5248,
      "width": 5249,
      "veling": 5250,
      "aders": 5251,
      "adjust": 5252,
      "adually": 5253,
      "admir": 5254,
      "addition": 5255,
      "ents": 5256,
      "ental": 5257,
      "entering": 5258,
      "ential": 5259,
      "lls": 5260,
      "esque": 5261,
      "icul": 5262,
      "icided": 5263,
      "urated": 5264,
      "urged": 5265,
      "urging": 5266,
      "urgent": 5267,
      "untime": 5268,
      "unison": 5269,
      "unbound": 5270,
      "unseen": 5271,
      "unfamiliar": 5272,
      "untar": 5273,
      "unaware": 5274,
      "uncommon": 5275,
      "unfinished": 5276,
      "untouched": 5277,
      "uncontroll": 5278,
      "unfortunate": 5279,
      "unassuming": 5280,
      "underest": 5281,
      "utin": 5282,
      "iric": 5283,
      "irming": 5284,
      "ircled": 5285,
      "withstand": 5286,
      "fortified": 5287,
      "acly": 5288,
      "acqu": 5289,
      "acul": 5290,
      "acious": 5291,
      "accept": 5292,
      "verted": 5293,
      "ids": 5294,
      "ider": 5295,
      "ident": 5296,
      "idating": 5297,
      "idual": 5298,
      "wet": 5299,
      "weep": 5300,
      "welled": 5301,
      "weigh": 5302,
      "weathe": 5303,
      "weather": 5304,
      "shr": 5305,
      "shut": 5306,
      "shred": 5307,
      "shined": 5308,
      "sharing": 5309,
      "shoc": 5310,
      "showed": 5311,
      "whim": 5312,
      "whirl": 5313,
      "ripetal": 5314,
      "ague": 5315,
      "agility": 5316,
      "imple": 5317,
      "imposed": 5318,
      "imidating": 5319,
      "rock": 5320,
      "roared": 5321,
      "rolled": 5322,
      "roles": 5323,
      "rook": 5324,
      "susp": 5325,
      "suade": 5326,
      "apon": 5327,
      "apped": 5328,
      "appreh": 5329,
      "appoint": 5330,
      "apolog": 5331,
      "aporated": 5332,
      "ounding": 5333,
      "laby": 5334,
      "lakes": 5335,
      "lamented": 5336,
      "lamp": 5337,
      "lavish": 5338,
      "label": 5339,
      "key": 5340,
      "noon": 5341,
      "noble": 5342,
      "nobility": 5343,
      "cony": 5344,
      "const": 5345,
      "conden": 5346,
      "concl": 5347,
      "conced": 5348,
      "conquest": 5349,
      "construct": 5350,
      "condem": 5351,
      "constructed": 5352,
      "confines": 5353,
      "alloy": 5354,
      "feed": 5355,
      "fered": 5356,
      "feared": 5357,
      "femin": 5358,
      "fellow": 5359,
      "feeble": 5360,
      "nel": 5361,
      "neare": 5362,
      "respe": 5363,
      "respl": 5364,
      "resorting": 5365,
      "residual": 5366,
      "resounding": 5367,
      "los": 5368,
      "loop": 5369,
      "loving": 5370,
      "ama": 5371,
      "amed": 5372,
      "amics": 5373,
      "ambit": 5374,
      "amends": 5375,
      "soli": 5376,
      "soph": 5377,
      "solit": 5378,
      "soothing": 5379,
      "aband": 5380,
      "aback": 5381,
      "absur": 5382,
      "heritage": 5383,
      "mant": 5384,
      "mansion": 5385,
      "manently": 5386,
      "maneu": 5387,
      "manoeu": 5388,
      "tired": 5389,
      "fray": 5390,
      "frowned": 5391,
      "fronted": 5392,
      "ems": 5393,
      "emitted": 5394,
      "exha": 5395,
      "exhal": 5396,
      "exhil": 5397,
      "exited": 5398,
      "exchange": 5399,
      "exceed": 5400,
      "explic": 5401,
      "worthin": 5402,
      "wormhole": 5403,
      "geant": 5404,
      "geous": 5405,
      "geting": 5406,
      "terri": 5407,
      "tragic": 5408,
      "trick": 5409,
      "tracted": 5410,
      "poor": 5411,
      "poet": 5412,
      "polic": 5413,
      "poised": 5414,
      "popped": 5415,
      "pointing": 5416,
      "usage": 5417,
      "usive": 5418,
      "vote": 5419,
      "ify": 5420,
      "iffe": 5421,
      "outcl": 5422,
      "outcomes": 5423,
      "outsmart": 5424,
      "quo": 5425,
      "quant": 5426,
      "quated": 5427,
      "quish": 5428,
      "quip": 5429,
      "savi": 5430,
      "saved": 5431,
      "savage": 5432,
      "majest": 5433,
      "hail": 5434,
      "hailed": 5435,
      "hazed": 5436,
      "hailing": 5437,
      "indiffe": 5438,
      "ourable": 5439,
      "grid": 5440,
      "grud": 5441,
      "graced": 5442,
      "grade": 5443,
      "grinding": 5444,
      "gradually": 5445,
      "ulse": 5446,
      "ulsive": 5447,
      "comfor": 5448,
      "compla": 5449,
      "compli": 5450,
      "harden": 5451,
      "harness": 5452,
      "ices": 5453,
      "endent": 5454,
      "peror": 5455,
      "persi": 5456,
      "perceived": 5457,
      "permanently": 5458,
      "thermal": 5459,
      "mot": 5460,
      "mold": 5461,
      "molt": 5462,
      "motiv": 5463,
      "mocking": 5464,
      "mobili": 5465,
      "stray": 5466,
      "strating": 5467,
      "stratosphere": 5468,
      "opy": 5469,
      "oppres": 5470,
      "opath": 5471,
      "oppos": 5472,
      "ette": 5473,
      "etching": 5474,
      "vene": 5475,
      "venge": 5476,
      "caut": 5477,
      "caused": 5478,
      "caval": 5479,
      "shepher": 5480,
      "sister": 5481,
      "yours": 5482,
      "spat": 5483,
      "spread": 5484,
      "spraw": 5485,
      "sparked": 5486,
      "spreading": 5487,
      "splat": 5488,
      "essentially": 5489,
      "Third": 5490,
      "blushed": 5491,
      "blings": 5492,
      "cob": 5493,
      "coiled": 5494,
      "cooperate": 5495,
      "prove": 5496,
      "progres": 5497,
      "proposal": 5498,
      "provoke": 5499,
      "ists": 5500,
      "istics": 5501,
      "upper": 5502,
      "upward": 5503,
      "upcoming": 5504,
      "upgrade": 5505,
      "ancements": 5506,
      "somewhat": 5507,
      "somehow": 5508,
      "dog": 5509,
      "tinge": 5510,
      "lesson": 5511,
      "eled": 5512,
      "elong": 5513,
      "elusive": 5514,
      "umental": 5515,
      "epy": 5516,
      "remnants": 5517,
      "orders": 5518,
      "asties": 5519,
      "overcast": 5520,
      "overcome": 5521,
      "overflow": 5522,
      "mentally": 5523,
      "mentary": 5524,
      "plain": 5525,
      "ledger": 5526,
      "brat": 5527,
      "brow": 5528,
      "brav": 5529,
      "brave": 5530,
      "surreal": 5531,
      "survey": 5532,
      "surrendered": 5533,
      "Charles": 5534,
      "deny": 5535,
      "density": 5536,
      "igno": 5537,
      "plu": 5538,
      "plun": 5539,
      "attitude": 5540,
      "sche": 5541,
      "scri": 5542,
      "scient": 5543,
      "scrap": 5544,
      "scolding": 5545,
      "screen": 5546,
      "contained": 5547,
      "ders": 5548,
      "useful": 5549,
      "intimidating": 5550,
      "Indi": 5551,
      "Intri": 5552,
      "Infront": 5553,
      "Instantly": 5554,
      "pleaded": 5555,
      "uelled": 5556,
      "ersed": 5557,
      "erspocket": 5558,
      "arts": 5559,
      "Weapon": 5560,
      "serve": 5561,
      "server": 5562,
      "served": 5563,
      "servit": 5564,
      "servation": 5565,
      "preva": 5566,
      "vileg": 5567,
      "practi": 5568,
      "Ancient": 5569,
      "lifetime": 5570,
      "handed": 5571,
      "handsome": 5572,
      "suitable": 5573,
      "discer": 5574,
      "disbelief": 5575,
      "disrupt": 5576,
      "disadvantage": 5577,
      "displays": 5578,
      "disposal": 5579,
      "disorient": 5580,
      "disappearing": 5581,
      "dissuade": 5582,
      "disappoint": 5583,
      "crest": 5584,
      "creaked": 5585,
      "creepy": 5586,
      "monumental": 5587,
      "background": 5588,
      "hollow": 5589,
      "hovered": 5590,
      "esteem": 5591,
      "rail": 5592,
      "taunting": 5593,
      "implic": 5594,
      "impenetr": 5595,
      "impulsive": 5596,
      "angely": 5597,
      "reshape": 5598,
      "formal": 5599,
      "formalities": 5600,
      "throughout": 5601,
      "stands": 5602,
      "standard": 5603,
      "lings": 5604,
      "everywhere": 5605,
      "seeing": 5606,
      "seething": 5607,
      "dili": 5608,
      "dive": 5609,
      "dived": 5610,
      "dipped": 5611,
      "founding": 5612,
      "boom": 5613,
      "board": 5614,
      "boomed": 5615,
      "boost": 5616,
      "guiding": 5617,
      "mightiest": 5618,
      "lights": 5619,
      "gathered": 5620,
      "iversal": 5621,
      "skull": 5622,
      "reads": 5623,
      "readings": 5624,
      "readied": 5625,
      "Goddess": 5626,
      "clearing": 5627,
      "capac": 5628,
      "capped": 5629,
      "capability": 5630,
      "capacity": 5631,
      "needless": 5632,
      "downwards": 5633,
      "warned": 5634,
      "underground": 5635,
      "underwent": 5636,
      "cursed": 5637,
      "curved": 5638,
      "tooth": 5639,
      "helmet": 5640,
      "rights": 5641,
      "centripetal": 5642,
      "walled": 5643,
      "encies": 5644,
      "encircled": 5645,
      "torn": 5646,
      "aks": 5647,
      "Within": 5648,
      "drained": 5649,
      "longing": 5650,
      "vampiric": 5651,
      "instance": 5652,
      "claiming": 5653,
      "earn": 5654,
      "visited": 5655,
      "visitor": 5656,
      "visibly": 5657,
      "calls": 5658,
      "category": 5659,
      "phrase": 5660,
      "jectively": 5661,
      "jealous": 5662,
      "muster": 5663,
      "obli": 5664,
      "obediently": 5665,
      "obstacle": 5666,
      "summit": 5667,
      "...”": 5668,
      "closing": 5669,
      "landscape": 5670,
      "mostly": 5671,
      "planning": 5672,
      "awaken": 5673,
      "titanium": 5674,
      "exists": 5675,
      "existing": 5676,
      "gets": 5677,
      "quiet": 5678,
      "trigg": 5679,
      "triggered": 5680,
      "continu": 5681,
      "continent": 5682,
      "barren": 5683,
      "halted": 5684,
      "shoulders": 5685,
      "breed": 5686,
      "breach": 5687,
      "brethren": 5688,
      "minor": 5689,
      "natures": 5690,
      "letters": 5691,
      "personally": 5692,
      "personalities": 5693,
      "headed": 5694,
      "questions": 5695,
      "type": 5696,
      "darker": 5697,
      "darkened": 5698,
      "0045": 5699,
      "Being": 5700,
      "dedu": 5701,
      "stillness": 5702,
      "counting": 5703,
      "priate": 5704,
      "privileg": 5705,
      "wake": 5706,
      "members": 5707,
      "gestured": 5708,
      "comply": 5709,
      "compens": 5710,
      "placement": 5711,
      "Determ": 5712,
      "silenced": 5713,
      "restoring": 5714,
      "buried": 5715,
      "bloody": 5716,
      "blooded": 5717,
      "bloodlust": 5718,
      "calamity": 5719,
      "gym": 5720,
      "nail": 5721,
      "ughtered": 5722,
      "heartbeat": 5723,
      "agonizing": 5724,
      "trail": 5725,
      "traff": 5726,
      "traverse": 5727,
      "signatures": 5728,
      "buz": 5729,
      "buck": 5730,
      "berated": 5731,
      "iliating": 5732,
      "refuge": 5733,
      "reflection": 5734,
      "cuted": 5735,
      "distort": 5736,
      "distinct": 5737,
      "fighters": 5738,
      "setting": 5739,
      "rippling": 5740,
      "controlling": 5741,
      "focusing": 5742,
      "situations": 5743,
      "ffled": 5744,
      "flash": 5745,
      "flung": 5746,
      "flowers": 5747,
      "flashes": 5748,
      "sink": 5749,
      "sinking": 5750,
      "armor": 5751,
      "destined": 5752,
      "ctors": 5753,
      "echoes": 5754,
      "glad": 5755,
      "glaring": 5756,
      "glanced": 5757,
      "glinting": 5758,
      "highly": 5759,
      "highlight": 5760,
      "party": 5761,
      "supported": 5762,
      "suppress": 5763,
      "grandest": 5764,
      "grandiose": 5765,
      "figured": 5766,
      "nothingness": 5767,
      "playground": 5768,
      "playfully": 5769,
      "hopelessness": 5770,
      "responding": 5771,
      "drove": 5772,
      "funding": 5773,
      "functions": 5774,
      "interject": 5775,
      "interconnected": 5776,
      "interior": 5777,
      "regal": 5778,
      "regular": 5779,
      "period": 5780,
      "speeds": 5781,
      "Title": 5782,
      "catacly": 5783,
      "sunlight": 5784,
      "tremble": 5785,
      "vali": 5786,
      "retali": 5787,
      "isoner": 5788,
      "possessions": 5789,
      "systems": 5790,
      "balcony": 5791,
      "parabo": 5792,
      "striving": 5793,
      "decis": 5794,
      "empted": 5795,
      "fulf": 5796,
      "fucking": 5797,
      "fugiti": 5798,
      "radar": 5799,
      "metap": 5800,
      "solve": 5801,
      "blaze": 5802,
      "casket": 5803,
      "circular": 5804,
      "joint": 5805,
      "joined": 5806,
      "reasons": 5807,
      "famous": 5808,
      "kills": 5809,
      "slain": 5810,
      "slaying": 5811,
      "slaughtered": 5812,
      "activating": 5813,
      "radiate": 5814,
      "cyn": 5815,
      "giving": 5816,
      "humiliating": 5817,
      "merged": 5818,
      "merciful": 5819,
      "saturated": 5820,
      "reinforced": 5821,
      "depended": 5822,
      "depends": 5823,
      "despise": 5824,
      "despised": 5825,
      "deserve": 5826,
      "charred": 5827,
      "charge": 5828,
      "logistics": 5829,
      "amenta": 5830,
      "barriers": 5831,
      "Together": 5832,
      "boundaries": 5833,
      "flee": 5834,
      "fleeing": 5835,
      "gateway": 5836,
      "misunderstand": 5837,
      "misfit": 5838,
      "painted": 5839,
      "painfully": 5840,
      "simult": 5841,
      "remembering": 5842,
      "ensemble": 5843,
      "shoes": 5844,
      "shook": 5845,
      "Hope": 5846,
      "Witnessing": 5847,
      "basics": 5848,
      "basalt": 5849,
      "flir": 5850,
      "escaped": 5851,
      "escaping": 5852,
      "keeps": 5853,
      "works": 5854,
      "realms": 5855,
      "frequencies": 5856,
      "intricately": 5857,
      "intricacies": 5858,
      "Seizing": 5859,
      "Unlike": 5860,
      "Unable": 5861,
      "Under": 5862,
      "Unfortun": 5863,
      "hurried": 5864,
      "knee": 5865,
      "psych": 5866,
      "rules": 5867,
      "rubbed": 5868,
      "south": 5869,
      "vastness": 5870,
      "relation": 5871,
      "relinqu": 5872,
      "descent": 5873,
      "descri": 5874,
      "concepts": 5875,
      "peaceful": 5876,
      "aintance": 5877,
      "telekinesis": 5878,
      "colour": 5879,
      "collect": 5880,
      "breathless": 5881,
      "exploits": 5882,
      "threatening": 5883,
      "sincere": 5884,
      "POF": 5885,
      "drive": 5886,
      "flame": 5887,
      "rowly": 5888,
      "leads": 5889,
      "ironment": 5890,
      "ironically": 5891,
      "subst": 5892,
      "subject": 5893,
      "subtle": 5894,
      "subtly": 5895,
      "ultimate": 5896,
      "media": 5897,
      "mediately": 5898,
      "okay": 5899,
      "sident": 5900,
      "enigma": 5901,
      "measures": 5902,
      "laughable": 5903,
      "bridges": 5904,
      "viously": 5905,
      "limitless": 5906,
      "responsi": 5907,
      "confident": 5908,
      "confidently": 5909,
      "calculations": 5910,
      "Archbish": 5911,
      "Also": 5912,
      "Alright": 5913,
      "Almost": 5914,
      "Almighty": 5915,
      "Enter": 5916,
      "Retracted": 5917,
      "evidence": 5918,
      "evolution": 5919,
      "floated": 5920,
      "floors": 5921,
      "putting": 5922,
      "targeting": 5923,
      "twist": 5924,
      "twisting": 5925,
      "intelli": 5926,
      "mysteriously": 5927,
      "accident": 5928,
      "suffer": 5929,
      "polished": 5930,
      "polarized": 5931,
      "protected": 5932,
      "protector": 5933,
      "fields": 5934,
      "efforts": 5935,
      "doubts": 5936,
      "passed": 5937,
      "passing": 5938,
      "passive": 5939,
      "sweat": 5940,
      "sweeping": 5941,
      "antiquated": 5942,
      "leaping": 5943,
      "sembled": 5944,
      "immersed": 5945,
      "rotating": 5946,
      "locking": 5947,
      "extended": 5948,
      "smaller": 5949,
      "observe": 5950,
      "observed": 5951,
      "maintained": 5952,
      "2024": 5953,
      "affect": 5954,
      "carefully": 5955,
      "dimin": 5956,
      "hitting": 5957,
      "hitched": 5958,
      "halls": 5959,
      "predatory": 5960,
      "defense": 5961,
      "sharper": 5962,
      "immediate": 5963,
      "confrontations": 5964,
      "embraced": 5965,
      "combined": 5966,
      "combination": 5967,
      "specif": 5968,
      "surviving": 5969,
      "vibration": 5970,
      "dominant": 5971,
      "betterment": 5972,
      "burdened": 5973,
      "shockwave": 5974,
      "channel": 5975,
      "channelling": 5976,
      "avoiding": 5977,
      "flowed": 5978,
      "lacked": 5979,
      "palpable": 5980,
      "spotted": 5981,
      "rectangle": 5982,
      "heaviness": 5983,
      "learned": 5984,
      "deliberate": 5985,
      "demands": 5986,
      "changes": 5987,
      "children": 5988,
      "suggesting": 5989,
      "suggestion": 5990,
      "positioned": 5991,
      "teaching": 5992,
      "strangely": 5993,
      "Sometimes": 5994,
      "curiously": 5995,
      "councils": 5996,
      "malevolence": 5997,
      "magnific": 5998,
      "Curious": 5999,
      "ONG": 6000,
      "Waiting": 6001,
      "borate": 6002,
      "dangerous": 6003,
      "wasting": 6004,
      "assault": 6005,
      "seats": 6006,
      "uttering": 6007,
      "weaklings": 6008,
      "shaped": 6009,
      "absolutely": 6010,
      "hardly": 6011,
      "hardships": 6012,
      "acknowledge": 6013,
      "spectac": 6014,
      "spectacle": 6015,
      "speaker": 6016,
      "intrigue": 6017,
      "discussing": 6018,
      "desperation": 6019,
      "desperately": 6020,
      "experiences": 6021,
      "genuinely": 6022,
      "Emperor": 6023,
      "TECTE": 6024,
      "crying": 6025,
      "easy": 6026,
      "easier": 6027,
      "eternal": 6028,
      "favourable": 6029,
      "glimmering": 6030,
      "glimpsed": 6031,
      "hunger": 6032,
      "parents": 6033,
      "wooden": 6034,
      "invinci": 6035,
      "invaders": 6036,
      "infinitely": 6037,
      "allies": 6038,
      "allible": 6039,
      "allized": 6040,
      "secrets": 6041,
      "wildest": 6042,
      "wielding": 6043,
      "advice": 6044,
      "astonished": 6045,
      "contemplation": 6046,
      "contemplate": 6047,
      "contemplated": 6048,
      "contemplating": 6049,
      "footsteps": 6050,
      "closest": 6051,
      "corporate": 6052,
      "significant": 6053,
      "collapsing": 6054,
      "mistakes": 6055,
      "bulletproof": 6056,
      "concerns": 6057,
      "destroyed": 6058,
      "hundreds": 6059,
      "Pray": 6060,
      "Prisoner": 6061,
      "audible": 6062,
      "audacity": 6063,
      "audio": 6064,
      "boldly": 6065,
      "eks": 6066,
      "flooding": 6067,
      "muscular": 6068,
      "pounded": 6069,
      "pulse": 6070,
      "sleeping": 6071,
      "sleek": 6072,
      "infer": 6073,
      "infused": 6074,
      "infallible": 6075,
      "increase": 6076,
      "resembled": 6077,
      "resembling": 6078,
      "defeating": 6079,
      "demonic": 6080,
      "accommod": 6081,
      "wealthy": 6082,
      "shortly": 6083,
      "impression": 6084,
      "impressive": 6085,
      "launch": 6086,
      "tightly": 6087,
      "fragility": 6088,
      "expertise": 6089,
      "pools": 6090,
      "grappled": 6091,
      "achieves": 6092,
      "inevitability": 6093,
      "remaining": 6094,
      "mentioned": 6095,
      "precious": 6096,
      "establishment": 6097,
      "crumpled": 6098,
      "clarified": 6099,
      "fluctu": 6100,
      "fueled": 6101,
      "connects": 6102,
      "interested": 6103,
      "acknowledged": 6104,
      "betrayed": 6105,
      "betraying": 6106,
      "problems": 6107,
      "Subject": 6108,
      "autom": 6109,
      "aucratic": 6110,
      "biolog": 6111,
      "craft": 6112,
      "daunting": 6113,
      "dazzling": 6114,
      "dodge": 6115,
      "dodged": 6116,
      "dodging": 6117,
      "evil": 6118,
      "evaporated": 6119,
      "equivalent": 6120,
      "large": 6121,
      "nonchalantly": 6122,
      "somber": 6123,
      "involuntar": 6124,
      "repeat": 6125,
      "restraint": 6126,
      "stunning": 6127,
      "study": 6128,
      "students": 6129,
      "asserted": 6130,
      "asserting": 6131,
      "methods": 6132,
      "omnis": 6133,
      "unfolded": 6134,
      "unfolding": 6135,
      "forgotten": 6136,
      "rivals": 6137,
      "rivaling": 6138,
      "supernatural": 6139,
      "convinced": 6140,
      "convulse": 6141,
      "consider": 6142,
      "worthless": 6143,
      "mastery": 6144,
      "indicated": 6145,
      "teenager": 6146,
      "providing": 6147,
      "brutal": 6148,
      "brutish": 6149,
      "brutally": 6150,
      "intentions": 6151,
      "disgusted": 6152,
      "fools": 6153,
      "boredom": 6154,
      "guessing": 6155,
      "obviously": 6156,
      "beginning": 6157,
      "efficient": 6158,
      "efficiently": 6159,
      "efficiency": 6160,
      "privy": 6161,
      "private": 6162,
      "privacy": 6163,
      "regardless": 6164,
      "beliefs": 6165,
      "complexities": 6166,
      "completely": 6167,
      "writerspocket": 6168,
      "strongholds": 6169,
      "particularly": 6170,
      "crystals": 6171,
      "crystallized": 6172,
      "accelerated": 6173,
      "Irishman": 6174,
      "endeavor": 6175,
      "endeavour": 6176,
      "enthusiasm": 6177,
      "mesmerized": 6178,
      "Compound": 6179,
      "DID": 6180,
      "Left": 6181,
      "Level": 6182,
      "Observation": 6183,
      "Obviously": 6184,
      "Point": 6185,
      "Standing": 6186,
      "THE": 6187,
      "bombs": 6188,
      "criminal": 6189,
      "emanate": 6190,
      "emanated": 6191,
      "frozen": 6192,
      "groaning": 6193,
      "knock": 6194,
      "knocked": 6195,
      "moral": 6196,
      "morality": 6197,
      "paying": 6198,
      "pillar": 6199,
      "pillars": 6200,
      "passage": 6201,
      "password": 6202,
      "panicked": 6203,
      "sliced": 6204,
      "instructions": 6205,
      "incredibly": 6206,
      "resulting": 6207,
      "announce": 6208,
      "annihilated": 6209,
      "environment": 6210,
      "alike": 6211,
      "delve": 6212,
      "unleash": 6213,
      "utilization": 6214,
      "agreement": 6215,
      "suffered": 6216,
      "concealed": 6217,
      "negotiation": 6218,
      "negotiate": 6219,
      "neutrality": 6220,
      "workings": 6221,
      "machine": 6222,
      "moonlight": 6223,
      "illuminating": 6224,
      "production": 6225,
      "produced": 6226,
      "overpowering": 6227,
      "intensified": 6228,
      "seriousness": 6229,
      "dismissed": 6230,
      "clutched": 6231,
      "clutching": 6232,
      "classic": 6233,
      "triumphant": 6234,
      "prioritize": 6235,
      "failure": 6236,
      "whispers": 6237,
      "transitioned": 6238,
      "collective": 6239,
      "collectively": 6240,
      "engineering": 6241,
      "----------------------------------------------------------------": 6242,
      "accomplish": 6243,
      "accomplished": 6244,
      "experiments": 6245,
      "emphasize": 6246,
      "ARLI": 6247,
      "CHARLI": 6248,
      "Confusion": 6249,
      "Friction": 6250,
      "Immediately": 6251,
      "Meanwhile": 6252,
      "Sunday": 6253,
      "Strangely": 6254,
      "Step": 6255,
      "Steeling": 6256,
      "birds": 6257,
      "digging": 6258,
      "digital": 6259,
      "drawing": 6260,
      "dynasties": 6261,
      "ferocity": 6262,
      "gasping": 6263,
      "garden": 6264,
      "lowering": 6265,
      "micro": 6266,
      "numerous": 6267,
      "narrowing": 6268,
      "oozed": 6269,
      "puppy": 6270,
      "pierced": 6271,
      "rumors": 6272,
      "smell": 6273,
      "smelled": 6274,
      "vault": 6275,
      "thrilling": 6276,
      "regeneration": 6277,
      "stinging": 6278,
      "stirring": 6279,
      "stammer": 6280,
      "stammered": 6281,
      "associated": 6282,
      "deemed": 6283,
      "deeming": 6284,
      "detected": 6285,
      "defiance": 6286,
      "defiantly": 6287,
      "accessed": 6288,
      "vertical": 6289,
      "concentrate": 6290,
      "consequences": 6291,
      "frame": 6292,
      "fraught": 6293,
      "execute": 6294,
      "executed": 6295,
      "compelled": 6296,
      "probability": 6297,
      "speechless": 6298,
      "surpassing": 6299,
      "scrutin": 6300,
      "introduction": 6301,
      "introduced": 6302,
      "distract": 6303,
      "draining": 6304,
      "architecture": 6305,
      "effective": 6306,
      "effectively": 6307,
      "swimming": 6308,
      "buffs": 6309,
      "flattery": 6310,
      "published": 6311,
      "corrupts": 6312,
      "patterns": 6313,
      "flawless": 6314,
      "flawlessly": 6315,
      "prompted": 6316,
      "prompting": 6317,
      "gnawed": 6318,
      "gnawing": 6319,
      "bitterness": 6320,
      "increasing": 6321,
      "increasingly": 6322,
      "manifestation": 6323,
      "Blades": 6324,
      "DETECTE": 6325,
      "Darkness": 6326,
      "Fireball": 6327,
      "Joint": 6328,
      "MONSTE": 6329,
      "Nevertheless": 6330,
      "Royal": 6331,
      "Should": 6332,
      "Sorceress": 6333,
      "Terminal": 6334,
      "Tara": 6335,
      "benef": 6336,
      "business": 6337,
      "bustling": 6338,
      "kicks": 6339,
      "ladders": 6340,
      "loneliness": 6341,
      "lungs": 6342,
      "mutual": 6343,
      "mourn": 6344,
      "narrowly": 6345,
      "switched": 6346,
      "wrist": 6347,
      "inflict": 6348,
      "rectify": 6349,
      "revolving": 6350,
      "representative": 6351,
      "attract": 6352,
      "enhanced": 6353,
      "enjoying": 6354,
      "enormity": 6355,
      "streaked": 6356,
      "assessment": 6357,
      "issue": 6358,
      "isolation": 6359,
      "aligning": 6360,
      "security": 6361,
      "address": 6362,
      "escalate": 6363,
      "unveil": 6364,
      "undeniably": 6365,
      "welcom": 6366,
      "conventional": 6367,
      "nestled": 6368,
      "resentment": 6369,
      "resurrected": 6370,
      "resources": 6371,
      "abundance": 6372,
      "embarked": 6373,
      "embarrassed": 6374,
      "exterior": 6375,
      "exasperation": 6376,
      "tracks": 6377,
      "teeth": 6378,
      "opinion": 6379,
      "cocoon": 6380,
      "coordinates": 6381,
      "plummet": 6382,
      "scorching": 6383,
      "scale": 6384,
      "sensors": 6385,
      "dialogue": 6386,
      "clasped": 6387,
      "drastic": 6388,
      "visceral": 6389,
      "assassin": 6390,
      "corridors": 6391,
      "valuable": 6392,
      "transport": 6393,
      "transformations": 6394,
      "promptly": 6395,
      "hallucination": 6396,
      "predicament": 6397,
      "mirroring": 6398,
      "Attempting": 6399,
      "crafted": 6400,
      "sneakers": 6401,
      "synchronizing": 6402,
      "adamantine": 6403,
      "Absolutely": 6404,
      "electricity": 6405,
      "luxurious": 6406,
      "navigated": 6407,
      "sympathy": 6408,
      "inadequacy": 6409,
      "melancholy": 6410,
      "Another": 6411,
      "Activate": 6412,
      "Besides": 6413,
      "Boredom": 6414,
      "Clairvoyance": 6415,
      "Divine": 6416,
      "Dissident": 6417,
      "Dictatorship": 6418,
      "Everest": 6419,
      "Fundamenta": 6420,
      "HIM": 6421,
      "Ironically": 6422,
      "Knowing": 6423,
      "Manager": 6424,
      "Morty": 6425,
      "MAGIC": 6426,
      "Okay": 6427,
      "Otherwise": 6428,
      "Sodium": 6429,
      "Shadows": 6430,
      "Supreme": 6431,
      "Seylepr": 6432,
      "Tell": 6433,
      "Tzu": 6434,
      "Teleportation": 6435,
      "Usually": 6436,
      "Writer": 6437,
      "axies": 6438,
      "author": 6439,
      "bidding": 6440,
      "bureaucratic": 6441,
      "bottom": 6442,
      "blasted": 6443,
      "blistering": 6444,
      "coffin": 6445,
      "clicked": 6446,
      "data": 6447,
      "dangers": 6448,
      "elaborate": 6449,
      "gorgeous": 6450,
      "galaxies": 6451,
      "grotesque": 6452,
      "hatred": 6453,
      "history": 6454,
      "hysical": 6455,
      "knives": 6456,
      "money": 6457,
      "nesses": 6458,
      "powder": 6459,
      "pinnacle": 6460,
      "premonition": 6461,
      "rinth": 6462,
      "rays": 6463,
      "rhythmic": 6464,
      "scope": 6465,
      "temptation": 6466,
      "ugliness": 6467,
      "vulner": 6468,
      "whether": 6469,
      "wondrous": 6470,
      "thirty": 6471,
      "investig": 6472,
      "inherent": 6473,
      "inappropriate": 6474,
      "insights": 6475,
      "initiated": 6476,
      "reports": 6477,
      "analy": 6478,
      "anomalies": 6479,
      "tories": 6480,
      "allegiance": 6481,
      "seamless": 6482,
      "definition": 6483,
      "devised": 6484,
      "declaration": 6485,
      "bellowed": 6486,
      "admiration": 6487,
      "untimely": 6488,
      "underestimate": 6489,
      "acquaintance": 6490,
      "weathered": 6491,
      "whirlwind": 6492,
      "implement": 6493,
      "rookie": 6494,
      "apprehension": 6495,
      "apologize": 6496,
      "labyrinth": 6497,
      "lakeshore": 6498,
      "noblest": 6499,
      "condensed": 6500,
      "conclusion": 6501,
      "condemned": 6502,
      "feminine": 6503,
      "respective": 6504,
      "resplendent": 6505,
      "sophistic": 6506,
      "solitude": 6507,
      "absurd": 6508,
      "manoeuv": 6509,
      "exhaustion": 6510,
      "exhilaration": 6511,
      "worthiness": 6512,
      "policies": 6513,
      "outclassed": 6514,
      "quantity": 6515,
      "quipped": 6516,
      "savior": 6517,
      "majestic": 6518,
      "hardening": 6519,
      "harnessed": 6520,
      "molten": 6521,
      "opposite": 6522,
      "cavalry": 6523,
      "shepherd": 6524,
      "bravado": 6525,
      "scientists": 6526,
      "Intrigued": 6527,
      "servitude": 6528,
      "practice": 6529,
      "esteemed": 6530,
      "implications": 6531,
      "impenetrable": 6532,
      "jealousy": 6533,
      "privileges": 6534,
      "compensate": 6535,
      "Determined": 6536,
      "traffic": 6537,
      "parabolic": 6538,
      "fugitives": 6539,
      "simultaneously": 6540,
      "Unfortunately": 6541,
      "hurriedly": 6542,
      "psychopath": 6543,
      "relinquished": 6544,
      "Archbishop": 6545,
      "intelligence": 6546,
      "invincible": 6547,
      "accommodate": 6548,
      "automated": 6549,
      "involuntarily": 6550,
      "Observationis": 6551,
      "CHARLIE": 6552,
      "DETECTED": 6553,
      "MONSTER": 6554,
      "Seyleprus": 6555
    },
    "merges": [
      [
        "t",
        "h"
      ],
      [
        "i",
        "n"
      ],
      [
        "r",
        "e"
      ],
      [
        "th",
        "e"
      ],
      [
        "e",
        "d"
      ],
      [
        "a",
        "n"
      ],
      [
        "e",
        "r"
      ],
      [
        "o",
        "n"
      ],
      [
        "o",
        "u"
      ],
      [
        "in",
        "g"
      ],
      [
        "a",
        "t"
      ],
      [
        "e",
        "n"
      ],
      [
        "s",
        "t"
      ],
      [
        "t",
        "o"
      ],
      [
        "a",
        "s"
      ],
      [
        "o",
        "r"
      ],
      [
        "i",
        "s"
      ],
      [
        "o",
        "f"
      ],
      [
        "a",
        "r"
      ],
      [
        "a",
        "l"
      ],
      [
        "h",
        "e"
      ],
      [
        "i",
        "t"
      ],
      [
        "m",
        "e"
      ],
      [
        "l",
        "e"
      ],
      [
        "an",
        "d"
      ],
      [
        "m",
        "y"
      ],
      [
        "s",
        "e"
      ],
      [
        "c",
        "e"
      ],
      [
        "o",
        "w"
      ],
      [
        "d",
        "e"
      ],
      [
        "b",
        "e"
      ],
      [
        "l",
        "y"
      ],
      [
        "l",
        "i"
      ],
      [
        "l",
        "d"
      ],
      [
        "c",
        "h"
      ],
      [
        "w",
        "as"
      ],
      [
        "w",
        "i"
      ],
      [
        "o",
        "m"
      ],
      [
        "i",
        "on"
      ],
      [
        "v",
        "e"
      ],
      [
        "a",
        "d"
      ],
      [
        "en",
        "t"
      ],
      [
        "g",
        "h"
      ],
      [
        "l",
        "l"
      ],
      [
        "e",
        "s"
      ],
      [
        "i",
        "c"
      ],
      [
        "u",
        "r"
      ],
      [
        "u",
        "n"
      ],
      [
        "u",
        "t"
      ],
      [
        "i",
        "r"
      ],
      [
        "y",
        "ou"
      ],
      [
        "wi",
        "th"
      ],
      [
        "f",
        "or"
      ],
      [
        "a",
        "c"
      ],
      [
        "v",
        "er"
      ],
      [
        "th",
        "at"
      ],
      [
        "i",
        "d"
      ],
      [
        "w",
        "e"
      ],
      [
        "ou",
        "n"
      ],
      [
        "s",
        "h"
      ],
      [
        "w",
        "h"
      ],
      [
        "re",
        "d"
      ],
      [
        "r",
        "i"
      ],
      [
        "T",
        "he"
      ],
      [
        "h",
        "is"
      ],
      [
        "gh",
        "t"
      ],
      [
        "a",
        "g"
      ],
      [
        "i",
        "m"
      ],
      [
        "r",
        "o"
      ],
      [
        "s",
        "u"
      ],
      [
        "a",
        "p"
      ],
      [
        "oun",
        "d"
      ],
      [
        "l",
        "a"
      ],
      [
        "ou",
        "ld"
      ],
      [
        "k",
        "e"
      ],
      [
        "n",
        "o"
      ],
      [
        "c",
        "on"
      ],
      [
        "al",
        "l"
      ],
      [
        "f",
        "e"
      ],
      [
        "n",
        "e"
      ],
      [
        "re",
        "s"
      ],
      [
        "l",
        "o"
      ],
      [
        "p",
        "e"
      ],
      [
        "a",
        "m"
      ],
      [
        "at",
        "ion"
      ],
      [
        "s",
        "o"
      ],
      [
        "a",
        "b"
      ],
      [
        "h",
        "er"
      ],
      [
        "m",
        "an"
      ],
      [
        "th",
        "is"
      ],
      [
        "at",
        "e"
      ],
      [
        "o",
        "d"
      ],
      [
        "t",
        "i"
      ],
      [
        "h",
        "ad"
      ],
      [
        "f",
        "r"
      ],
      [
        ",",
        "”"
      ],
      [
        "e",
        "m"
      ],
      [
        "e",
        "x"
      ],
      [
        "a",
        "in"
      ],
      [
        "w",
        "or"
      ],
      [
        "o",
        "re"
      ],
      [
        "s",
        "s"
      ],
      [
        "on",
        "e"
      ],
      [
        "i",
        "l"
      ],
      [
        "g",
        "e"
      ],
      [
        "c",
        "t"
      ],
      [
        "t",
        "er"
      ],
      [
        "t",
        "r"
      ],
      [
        "it",
        "y"
      ],
      [
        "b",
        "ut"
      ],
      [
        "p",
        "o"
      ],
      [
        "u",
        "s"
      ],
      [
        "v",
        "o"
      ],
      [
        "l",
        "f"
      ],
      [
        "i",
        "f"
      ],
      [
        "ou",
        "t"
      ],
      [
        "q",
        "u"
      ],
      [
        "i",
        "z"
      ],
      [
        "s",
        "a"
      ],
      [
        "m",
        "a"
      ],
      [
        "fr",
        "om"
      ],
      [
        "c",
        "ould"
      ],
      [
        "h",
        "a"
      ],
      [
        "in",
        "d"
      ],
      [
        "ou",
        "r"
      ],
      [
        "a",
        "re"
      ],
      [
        "g",
        "r"
      ],
      [
        "u",
        "l"
      ],
      [
        "c",
        "om"
      ],
      [
        "an",
        "t"
      ],
      [
        "t",
        "e"
      ],
      [
        "I",
        "t"
      ],
      [
        "h",
        "ar"
      ],
      [
        "i",
        "ce"
      ],
      [
        "u",
        "st"
      ],
      [
        "en",
        "d"
      ],
      [
        "p",
        "er"
      ],
      [
        "li",
        "ke"
      ],
      [
        "the",
        "r"
      ],
      [
        "no",
        "t"
      ],
      [
        "n",
        "ow"
      ],
      [
        "i",
        "ght"
      ],
      [
        "k",
        "ing"
      ],
      [
        "m",
        "o"
      ],
      [
        "a",
        "y"
      ],
      [
        "st",
        "r"
      ],
      [
        "o",
        "p"
      ],
      [
        "b",
        "y"
      ],
      [
        "e",
        "t"
      ],
      [
        "en",
        "ce"
      ],
      [
        "v",
        "en"
      ],
      [
        "ow",
        "er"
      ],
      [
        "ac",
        "k"
      ],
      [
        "vo",
        "ice"
      ],
      [
        "i",
        "re"
      ],
      [
        "c",
        "a"
      ],
      [
        "f",
        "ore"
      ],
      [
        "th",
        "ing"
      ],
      [
        "at",
        "ed"
      ],
      [
        "ar",
        "d"
      ],
      [
        "o",
        "ld"
      ],
      [
        "se",
        "lf"
      ],
      [
        "ou",
        "gh"
      ],
      [
        "H",
        "e"
      ],
      [
        "i",
        "ll"
      ],
      [
        "k",
        "ed"
      ],
      [
        "p",
        "ower"
      ],
      [
        "s",
        "he"
      ],
      [
        "in",
        "to"
      ],
      [
        "s",
        "i"
      ],
      [
        "man",
        "a"
      ],
      [
        "e",
        "ver"
      ],
      [
        "t",
        "ed"
      ],
      [
        "you",
        "r"
      ],
      [
        "ha",
        "ve"
      ],
      [
        "a",
        "ce"
      ],
      [
        "A",
        "s"
      ],
      [
        "h",
        "im"
      ],
      [
        "s",
        "p"
      ],
      [
        "es",
        "s"
      ],
      [
        "sa",
        "id"
      ],
      [
        "T",
        "h"
      ],
      [
        "b",
        "l"
      ],
      [
        "c",
        "o"
      ],
      [
        "p",
        "ro"
      ],
      [
        "i",
        "st"
      ],
      [
        "ou",
        "s"
      ],
      [
        "wor",
        "ld"
      ],
      [
        ".",
        "”"
      ],
      [
        "u",
        "p"
      ],
      [
        "an",
        "ce"
      ],
      [
        "li",
        "e"
      ],
      [
        "we",
        "re"
      ],
      [
        "ti",
        "me"
      ],
      [
        "a",
        "ch"
      ],
      [
        "so",
        "me"
      ],
      [
        "d",
        "o"
      ],
      [
        "t",
        "ing"
      ],
      [
        "u",
        "re"
      ],
      [
        "he",
        "re"
      ],
      [
        "ow",
        "n"
      ],
      [
        "be",
        "fore"
      ],
      [
        "le",
        "ss"
      ],
      [
        "in",
        "e"
      ],
      [
        "a",
        "ir"
      ],
      [
        "e",
        "l"
      ],
      [
        "p",
        "res"
      ],
      [
        "u",
        "m"
      ],
      [
        "e",
        "p"
      ],
      [
        "re",
        "m"
      ],
      [
        "wi",
        "ll"
      ],
      [
        "ne",
        "w"
      ],
      [
        "or",
        "d"
      ],
      [
        "a",
        "st"
      ],
      [
        "o",
        "ver"
      ],
      [
        "c",
        "an"
      ],
      [
        "m",
        "ent"
      ],
      [
        "p",
        "la"
      ],
      [
        "e",
        "ven"
      ],
      [
        "re",
        "al"
      ],
      [
        "it",
        "e"
      ],
      [
        "se",
        "em"
      ],
      [
        "ac",
        "t"
      ],
      [
        "l",
        "ed"
      ],
      [
        "r",
        "y"
      ],
      [
        "on",
        "g"
      ],
      [
        "s",
        "pe"
      ],
      [
        "the",
        "ir"
      ],
      [
        "is",
        "h"
      ],
      [
        "L",
        "iz"
      ],
      [
        "the",
        "m"
      ],
      [
        "Liz",
        "a"
      ],
      [
        "B",
        "ut"
      ],
      [
        "-",
        "-"
      ],
      [
        "b",
        "r"
      ],
      [
        "s",
        "ur"
      ],
      [
        "C",
        "har"
      ],
      [
        "a",
        "th"
      ],
      [
        "w",
        "ould"
      ],
      [
        "ab",
        "le"
      ],
      [
        "w",
        "ay"
      ],
      [
        "the",
        "y"
      ],
      [
        "?",
        "”"
      ],
      [
        "n",
        "ed"
      ],
      [
        "wh",
        "o"
      ],
      [
        "Char",
        "lie"
      ],
      [
        "d",
        "en"
      ],
      [
        "d",
        "id"
      ],
      [
        "i",
        "g"
      ],
      [
        "p",
        "l"
      ],
      [
        "at",
        "t"
      ],
      [
        "at",
        "ing"
      ],
      [
        "wh",
        "at"
      ],
      [
        "H",
        "er"
      ],
      [
        "k",
        "now"
      ],
      [
        "s",
        "c"
      ],
      [
        "con",
        "t"
      ],
      [
        "e",
        "y"
      ],
      [
        "re",
        "n"
      ],
      [
        "d",
        "er"
      ],
      [
        "u",
        "se"
      ],
      [
        "in",
        "t"
      ],
      [
        ",",
        "\""
      ],
      [
        "i",
        "es"
      ],
      [
        "w",
        "ard"
      ],
      [
        "ir",
        "st"
      ],
      [
        "d",
        "s"
      ],
      [
        "or",
        "t"
      ],
      [
        "I",
        "n"
      ],
      [
        "M",
        "y"
      ],
      [
        "p",
        "ed"
      ],
      [
        "p",
        "le"
      ],
      [
        "c",
        "k"
      ],
      [
        "t",
        "ur"
      ],
      [
        "u",
        "e"
      ],
      [
        "er",
        "s"
      ],
      [
        "ar",
        "t"
      ],
      [
        "ag",
        "ic"
      ],
      [
        "W",
        "e"
      ],
      [
        "my",
        "self"
      ],
      [
        "s",
        "m"
      ],
      [
        "s",
        "er"
      ],
      [
        "j",
        "ust"
      ],
      [
        "m",
        "ore"
      ],
      [
        "p",
        "re"
      ],
      [
        "v",
        "i"
      ],
      [
        "o",
        "od"
      ],
      [
        "p",
        "r"
      ],
      [
        "th",
        "r"
      ],
      [
        "the",
        "re"
      ],
      [
        "ar",
        "ound"
      ],
      [
        "ag",
        "e"
      ],
      [
        "A",
        "n"
      ],
      [
        "an",
        "y"
      ],
      [
        "ve",
        "s"
      ],
      [
        "li",
        "fe"
      ],
      [
        "h",
        "and"
      ],
      [
        "al",
        "ly"
      ],
      [
        "su",
        "it"
      ],
      [
        "ey",
        "es"
      ],
      [
        "d",
        "is"
      ],
      [
        "e",
        "er"
      ],
      [
        "ab",
        "out"
      ],
      [
        "b",
        "le"
      ],
      [
        "c",
        "re"
      ],
      [
        "f",
        "t"
      ],
      [
        "l",
        "ow"
      ],
      [
        "a",
        "red"
      ],
      [
        "n",
        "ess"
      ],
      [
        "seem",
        "ed"
      ],
      [
        "m",
        "on"
      ],
      [
        "m",
        "at"
      ],
      [
        "b",
        "ack"
      ],
      [
        "a",
        "v"
      ],
      [
        "h",
        "o"
      ],
      [
        "h",
        "ound"
      ],
      [
        "u",
        "d"
      ],
      [
        "ou",
        "ght"
      ],
      [
        "d",
        "om"
      ],
      [
        "e",
        "st"
      ],
      [
        "r",
        "a"
      ],
      [
        "i",
        "le"
      ],
      [
        "s",
        "ed"
      ],
      [
        "t",
        "a"
      ],
      [
        "ur",
        "suit"
      ],
      [
        "s",
        "en"
      ],
      [
        "im",
        "p"
      ],
      [
        "f",
        "o"
      ],
      [
        "f",
        "ul"
      ],
      [
        "m",
        "agic"
      ],
      [
        "o",
        "ther"
      ],
      [
        "an",
        "ge"
      ],
      [
        "lo",
        "o"
      ],
      [
        "str",
        "u"
      ],
      [
        "u",
        "sh"
      ],
      [
        "re",
        "sh"
      ],
      [
        "for",
        "m"
      ],
      [
        "wor",
        "ds"
      ],
      [
        "p",
        "t"
      ],
      [
        "y",
        "ing"
      ],
      [
        "it",
        "s"
      ],
      [
        "ch",
        "o"
      ],
      [
        "ag",
        "ain"
      ],
      [
        "thr",
        "ough"
      ],
      [
        "S",
        "har"
      ],
      [
        "T",
        "eer"
      ],
      [
        "h",
        "ow"
      ],
      [
        "v",
        "ed"
      ],
      [
        "st",
        "and"
      ],
      [
        "Shar",
        "ma"
      ],
      [
        "Teer",
        "th"
      ],
      [
        "f",
        "ace"
      ],
      [
        "H",
        "is"
      ],
      [
        "P",
        "ursuit"
      ],
      [
        "l",
        "ing"
      ],
      [
        "on",
        "d"
      ],
      [
        "ever",
        "y"
      ],
      [
        "Th",
        "resh"
      ],
      [
        "Thresh",
        "old"
      ],
      [
        "W",
        "h"
      ],
      [
        "se",
        "e"
      ],
      [
        "be",
        "ing"
      ],
      [
        "am",
        "p"
      ],
      [
        "o",
        "t"
      ],
      [
        "s",
        "it"
      ],
      [
        "an",
        "g"
      ],
      [
        "c",
        "i"
      ],
      [
        "d",
        "i"
      ],
      [
        "on",
        "ly"
      ],
      [
        "H",
        "ow"
      ],
      [
        "f",
        "ound"
      ],
      [
        "h",
        "u"
      ],
      [
        "F",
        "irst"
      ],
      [
        "b",
        "o"
      ],
      [
        "c",
        "ar"
      ],
      [
        "of",
        "f"
      ],
      [
        "b",
        "od"
      ],
      [
        "s",
        "ing"
      ],
      [
        "be",
        "en"
      ],
      [
        "ion",
        "s"
      ],
      [
        "did",
        "n"
      ],
      [
        ".",
        "\""
      ],
      [
        "g",
        "u"
      ],
      [
        "l",
        "t"
      ],
      [
        "m",
        "ight"
      ],
      [
        "li",
        "ght"
      ],
      [
        "hu",
        "man"
      ],
      [
        "L",
        "ord"
      ],
      [
        "c",
        "r"
      ],
      [
        "g",
        "a"
      ],
      [
        "i",
        "ver"
      ],
      [
        "i",
        "ous"
      ],
      [
        "k",
        "new"
      ],
      [
        "m",
        "om"
      ],
      [
        "s",
        "k"
      ],
      [
        "in",
        "ed"
      ],
      [
        "re",
        "ad"
      ],
      [
        "ar",
        "k"
      ],
      [
        "ap",
        "pe"
      ],
      [
        "us",
        "ed"
      ],
      [
        "mom",
        "ent"
      ],
      [
        "G",
        "od"
      ],
      [
        "c",
        "le"
      ],
      [
        "c",
        "ap"
      ],
      [
        "ve",
        "l"
      ],
      [
        "ne",
        "ed"
      ],
      [
        "E",
        "lf"
      ],
      [
        "d",
        "own"
      ],
      [
        "w",
        "ar"
      ],
      [
        "the",
        "n"
      ],
      [
        "un",
        "der"
      ],
      [
        "S",
        "o"
      ],
      [
        "f",
        "in"
      ],
      [
        "th",
        "ought"
      ],
      [
        "on",
        "a"
      ],
      [
        "Her",
        "o"
      ],
      [
        "c",
        "ur"
      ],
      [
        "i",
        "th"
      ],
      [
        "t",
        "ain"
      ],
      [
        "th",
        "an"
      ],
      [
        "an",
        "s"
      ],
      [
        "to",
        "o"
      ],
      [
        "he",
        "l"
      ],
      [
        "was",
        "n"
      ],
      [
        "ri",
        "ght"
      ],
      [
        "Elf",
        "ona"
      ],
      [
        "c",
        "ent"
      ],
      [
        "f",
        "ter"
      ],
      [
        "w",
        "all"
      ],
      [
        "en",
        "c"
      ],
      [
        "st",
        "ood"
      ],
      [
        "to",
        "r"
      ],
      [
        "for",
        "ce"
      ],
      [
        "iz",
        "ed"
      ],
      [
        "could",
        "n"
      ],
      [
        "a",
        "k"
      ],
      [
        "f",
        "i"
      ],
      [
        "o",
        "se"
      ],
      [
        "ch",
        "ed"
      ],
      [
        "her",
        "o"
      ],
      [
        "some",
        "thing"
      ],
      [
        "T",
        "his"
      ],
      [
        "W",
        "ith"
      ],
      [
        "Y",
        "ou"
      ],
      [
        "m",
        "ind"
      ],
      [
        "s",
        "on"
      ],
      [
        "s",
        "ion"
      ],
      [
        "is",
        "e"
      ],
      [
        "wh",
        "en"
      ],
      [
        "si",
        "de"
      ],
      [
        "c",
        "l"
      ],
      [
        "d",
        "r"
      ],
      [
        "h",
        "ap"
      ],
      [
        "l",
        "ong"
      ],
      [
        "v",
        "amp"
      ],
      [
        "er",
        "ing"
      ],
      [
        "with",
        "in"
      ],
      [
        "--",
        "--"
      ],
      [
        "p",
        "li"
      ],
      [
        "in",
        "st"
      ],
      [
        "li",
        "m"
      ],
      [
        "ll",
        "ed"
      ],
      [
        "fe",
        "lt"
      ],
      [
        "c",
        "la"
      ],
      [
        "e",
        "ar"
      ],
      [
        "v",
        "is"
      ],
      [
        "y",
        "et"
      ],
      [
        "We",
        "ll"
      ],
      [
        "How",
        "ever"
      ],
      [
        "?",
        "\""
      ],
      [
        "c",
        "all"
      ],
      [
        "c",
        "ate"
      ],
      [
        "g",
        "ed"
      ],
      [
        "i",
        "p"
      ],
      [
        "p",
        "h"
      ],
      [
        "to",
        "ward"
      ],
      [
        "ic",
        "al"
      ],
      [
        "tur",
        "ned"
      ],
      [
        "j",
        "e"
      ],
      [
        "m",
        "ust"
      ],
      [
        "o",
        "b"
      ],
      [
        "p",
        "ing"
      ],
      [
        "ar",
        "ch"
      ],
      [
        "su",
        "m"
      ],
      [
        "su",
        "re"
      ],
      [
        "ca",
        "use"
      ],
      [
        "den",
        "ly"
      ],
      [
        ".",
        "."
      ],
      [
        "c",
        "lo"
      ],
      [
        "i",
        "de"
      ],
      [
        "l",
        "and"
      ],
      [
        "t",
        "one"
      ],
      [
        "w",
        "here"
      ],
      [
        "as",
        "e"
      ],
      [
        "le",
        "ft"
      ],
      [
        "be",
        "g"
      ],
      [
        "wh",
        "y"
      ],
      [
        "ct",
        "ion"
      ],
      [
        "ma",
        "de"
      ],
      [
        "An",
        "d"
      ],
      [
        "bod",
        "y"
      ],
      [
        "i",
        "ve"
      ],
      [
        "as",
        "ked"
      ],
      [
        "ain",
        "ed"
      ],
      [
        "ach",
        "ed"
      ],
      [
        "I",
        "f"
      ],
      [
        "g",
        "re"
      ],
      [
        "n",
        "ing"
      ],
      [
        "u",
        "th"
      ],
      [
        "ar",
        "y"
      ],
      [
        "ac",
        "ed"
      ],
      [
        "ct",
        "ed"
      ],
      [
        "gr",
        "ound"
      ],
      [
        "mo",
        "st"
      ],
      [
        "pl",
        "an"
      ],
      [
        "S",
        "he"
      ],
      [
        "a",
        "w"
      ],
      [
        "c",
        "he"
      ],
      [
        "m",
        "and"
      ],
      [
        "o",
        "l"
      ],
      [
        "t",
        "it"
      ],
      [
        "v",
        "ing"
      ],
      [
        "z",
        "e"
      ],
      [
        "ar",
        "ing"
      ],
      [
        "ex",
        "ist"
      ],
      [
        "ge",
        "t"
      ],
      [
        "qu",
        "i"
      ],
      [
        "sen",
        "se"
      ],
      [
        "c",
        "ed"
      ],
      [
        "d",
        "on"
      ],
      [
        "e",
        "f"
      ],
      [
        "n",
        "i"
      ],
      [
        "p",
        "ort"
      ],
      [
        "t",
        "ri"
      ],
      [
        "y",
        "s"
      ],
      [
        "y",
        "st"
      ],
      [
        "en",
        "ed"
      ],
      [
        "res",
        "p"
      ],
      [
        "te",
        "red"
      ],
      [
        "cont",
        "in"
      ],
      [
        "b",
        "ar"
      ],
      [
        "c",
        "er"
      ],
      [
        "c",
        "ti"
      ],
      [
        "h",
        "al"
      ],
      [
        "i",
        "al"
      ],
      [
        "th",
        "ough"
      ],
      [
        "an",
        "a"
      ],
      [
        "ch",
        "ing"
      ],
      [
        "un",
        "iver"
      ],
      [
        "sh",
        "ould"
      ],
      [
        "ab",
        "il"
      ],
      [
        "end",
        "ing"
      ],
      [
        "ish",
        "ed"
      ],
      [
        "ange",
        "l"
      ],
      [
        "pli",
        "ed"
      ],
      [
        "b",
        "re"
      ],
      [
        "i",
        "ch"
      ],
      [
        "m",
        "in"
      ],
      [
        "n",
        "at"
      ],
      [
        "le",
        "t"
      ],
      [
        "ver",
        "y"
      ],
      [
        "con",
        "f"
      ],
      [
        "lo",
        "od"
      ],
      [
        "per",
        "son"
      ],
      [
        "He",
        "cate"
      ],
      [
        "pres",
        "ence"
      ],
      [
        "appe",
        "ared"
      ],
      [
        "l",
        "it"
      ],
      [
        "o",
        "s"
      ],
      [
        "u",
        "ed"
      ],
      [
        "v",
        "id"
      ],
      [
        "th",
        "ose"
      ],
      [
        "on",
        "t"
      ],
      [
        "on",
        "ce"
      ],
      [
        "st",
        "ep"
      ],
      [
        "he",
        "ad"
      ],
      [
        "le",
        "vel"
      ],
      [
        "ll",
        "ow"
      ],
      [
        "wh",
        "ich"
      ],
      [
        "ri",
        "end"
      ],
      [
        "ca",
        "st"
      ],
      [
        "f",
        "riend"
      ],
      [
        "i",
        "e"
      ],
      [
        "be",
        "y"
      ],
      [
        "qu",
        "est"
      ],
      [
        "tit",
        "le"
      ],
      [
        "g",
        "o"
      ],
      [
        "m",
        "ed"
      ],
      [
        "t",
        "y"
      ],
      [
        "t",
        "en"
      ],
      [
        "w",
        "ant"
      ],
      [
        "re",
        "ve"
      ],
      [
        "re",
        "plied"
      ],
      [
        "as",
        "s"
      ],
      [
        "ro",
        "om"
      ],
      [
        "fe",
        "el"
      ],
      [
        "fr",
        "ont"
      ],
      [
        "ex",
        "p"
      ],
      [
        "co",
        "me"
      ],
      [
        "loo",
        "ked"
      ],
      [
        "univer",
        "se"
      ],
      [
        "d",
        "ire"
      ],
      [
        "d",
        "ark"
      ],
      [
        "h",
        "as"
      ],
      [
        "as",
        "h"
      ],
      [
        "it",
        "self"
      ],
      [
        "con",
        "d"
      ],
      [
        "ex",
        "pla"
      ],
      [
        "us",
        "ing"
      ],
      [
        "ill",
        "ed"
      ],
      [
        "again",
        "st"
      ],
      [
        "beg",
        "an"
      ],
      [
        "0",
        "0"
      ],
      [
        "B",
        "e"
      ],
      [
        "d",
        "ed"
      ],
      [
        "f",
        "re"
      ],
      [
        "th",
        "re"
      ],
      [
        "en",
        "e"
      ],
      [
        "st",
        "er"
      ],
      [
        "st",
        "ill"
      ],
      [
        "be",
        "t"
      ],
      [
        "be",
        "cause"
      ],
      [
        "ic",
        "k"
      ],
      [
        "ic",
        "t"
      ],
      [
        "we",
        "ll"
      ],
      [
        "sum",
        "mon"
      ],
      [
        "cti",
        "ve"
      ],
      [
        "c",
        "oun"
      ],
      [
        "h",
        "ind"
      ],
      [
        "i",
        "ble"
      ],
      [
        "p",
        "ri"
      ],
      [
        "u",
        "al"
      ],
      [
        "w",
        "a"
      ],
      [
        "er",
        "ry"
      ],
      [
        "me",
        "m"
      ],
      [
        "The",
        "y"
      ],
      [
        "su",
        "ch"
      ],
      [
        "ge",
        "st"
      ],
      [
        "po",
        "s"
      ],
      [
        "com",
        "p"
      ],
      [
        "pla",
        "ce"
      ],
      [
        "contin",
        "ued"
      ],
      [
        "bey",
        "ond"
      ],
      [
        "D",
        "e"
      ],
      [
        "J",
        "erry"
      ],
      [
        "a",
        "fter"
      ],
      [
        "g",
        "th"
      ],
      [
        "s",
        "wi"
      ],
      [
        "s",
        "il"
      ],
      [
        "w",
        "o"
      ],
      [
        "re",
        "st"
      ],
      [
        "be",
        "hind"
      ],
      [
        "ca",
        "me"
      ],
      [
        "expla",
        "ined"
      ],
      [
        "b",
        "ur"
      ],
      [
        "b",
        "att"
      ],
      [
        "b",
        "lood"
      ],
      [
        "c",
        "al"
      ],
      [
        "g",
        "y"
      ],
      [
        "g",
        "en"
      ],
      [
        "g",
        "od"
      ],
      [
        "i",
        "gh"
      ],
      [
        "m",
        "ing"
      ],
      [
        "n",
        "a"
      ],
      [
        "r",
        "ound"
      ],
      [
        "u",
        "ght"
      ],
      [
        "th",
        "in"
      ],
      [
        "he",
        "art"
      ],
      [
        "it",
        "ies"
      ],
      [
        "me",
        "re"
      ],
      [
        "ag",
        "on"
      ],
      [
        "ap",
        "pro"
      ],
      [
        "ation",
        "s"
      ],
      [
        "tr",
        "a"
      ],
      [
        "com",
        "mand"
      ],
      [
        "si",
        "g"
      ],
      [
        "Th",
        "en"
      ],
      [
        "ful",
        "ly"
      ],
      [
        "cle",
        "ar"
      ],
      [
        "toward",
        "s"
      ],
      [
        "b",
        "u"
      ],
      [
        "b",
        "er"
      ],
      [
        "e",
        "ad"
      ],
      [
        "i",
        "li"
      ],
      [
        "m",
        "u"
      ],
      [
        "w",
        "ind"
      ],
      [
        "re",
        "f"
      ],
      [
        "the",
        "se"
      ],
      [
        "on",
        "s"
      ],
      [
        "at",
        "or"
      ],
      [
        "st",
        "ren"
      ],
      [
        "or",
        "ity"
      ],
      [
        "de",
        "s"
      ],
      [
        "we",
        "ight"
      ],
      [
        "wh",
        "ite"
      ],
      [
        "ri",
        "f"
      ],
      [
        "su",
        "d"
      ],
      [
        "mo",
        "ve"
      ],
      [
        "stand",
        "ing"
      ],
      [
        "Wh",
        "at"
      ],
      [
        "read",
        "y"
      ],
      [
        "qui",
        "red"
      ],
      [
        "Y",
        "et"
      ],
      [
        "b",
        "ed"
      ],
      [
        "c",
        "ut"
      ],
      [
        "c",
        "ity"
      ],
      [
        "d",
        "ay"
      ],
      [
        "d",
        "ist"
      ],
      [
        "f",
        "ind"
      ],
      [
        "f",
        "ight"
      ],
      [
        "f",
        "irst"
      ],
      [
        "h",
        "old"
      ],
      [
        "s",
        "low"
      ],
      [
        "an",
        "other"
      ],
      [
        "me",
        "et"
      ],
      [
        "se",
        "t"
      ],
      [
        "ri",
        "p"
      ],
      [
        "la",
        "y"
      ],
      [
        "la",
        "st"
      ],
      [
        "ti",
        "v"
      ],
      [
        "tr",
        "ying"
      ],
      [
        "po",
        "t"
      ],
      [
        "vo",
        "l"
      ],
      [
        "vo",
        "id"
      ],
      [
        "some",
        "one"
      ],
      [
        "cont",
        "ro"
      ],
      [
        "fo",
        "c"
      ],
      [
        "sit",
        "u"
      ],
      [
        "human",
        "s"
      ],
      [
        "too",
        "k"
      ],
      [
        "batt",
        "le"
      ],
      [
        "stren",
        "gth"
      ],
      [
        "f",
        "f"
      ],
      [
        "f",
        "l"
      ],
      [
        "p",
        "u"
      ],
      [
        "s",
        "in"
      ],
      [
        "y",
        "e"
      ],
      [
        "en",
        "ough"
      ],
      [
        "ar",
        "m"
      ],
      [
        "se",
        "ss"
      ],
      [
        "de",
        "st"
      ],
      [
        "de",
        "ep"
      ],
      [
        "ic",
        "s"
      ],
      [
        "if",
        "t"
      ],
      [
        "iz",
        "ing"
      ],
      [
        "king",
        "dom"
      ],
      [
        "op",
        "le"
      ],
      [
        "el",
        "ves"
      ],
      [
        "sur",
        "round"
      ],
      [
        "ush",
        "ed"
      ],
      [
        "thought",
        "s"
      ],
      [
        "hap",
        "p"
      ],
      [
        "exist",
        "ence"
      ],
      [
        "c",
        "or"
      ],
      [
        "c",
        "tor"
      ],
      [
        "e",
        "cho"
      ],
      [
        "g",
        "l"
      ],
      [
        "h",
        "igh"
      ],
      [
        "i",
        "res"
      ],
      [
        "m",
        "i"
      ],
      [
        "p",
        "art"
      ],
      [
        "w",
        "it"
      ],
      [
        "it",
        "ing"
      ],
      [
        "ce",
        "pt"
      ],
      [
        "de",
        "ath"
      ],
      [
        "li",
        "c"
      ],
      [
        "ent",
        "ly"
      ],
      [
        "ent",
        "ire"
      ],
      [
        "su",
        "p"
      ],
      [
        "all",
        "en"
      ],
      [
        "ne",
        "ver"
      ],
      [
        "pe",
        "ople"
      ],
      [
        "gr",
        "and"
      ],
      [
        "gr",
        "ant"
      ],
      [
        "do",
        "or"
      ],
      [
        "vamp",
        "ire"
      ],
      [
        "reve",
        "al"
      ],
      [
        "situ",
        "ation"
      ],
      [
        "K",
        "ing"
      ],
      [
        "e",
        "red"
      ],
      [
        "f",
        "ate"
      ],
      [
        "f",
        "ig"
      ],
      [
        "f",
        "illed"
      ],
      [
        "g",
        "low"
      ],
      [
        "k",
        "en"
      ],
      [
        "u",
        "res"
      ],
      [
        "v",
        "ent"
      ],
      [
        "he",
        "ld"
      ],
      [
        "de",
        "x"
      ],
      [
        "wh",
        "ile"
      ],
      [
        "im",
        "ed"
      ],
      [
        "ro",
        "ss"
      ],
      [
        "no",
        "thing"
      ],
      [
        "fe",
        "at"
      ],
      [
        "sa",
        "w"
      ],
      [
        "end",
        "ed"
      ],
      [
        "bl",
        "ack"
      ],
      [
        "pla",
        "y"
      ],
      [
        "av",
        "ing"
      ],
      [
        "ho",
        "pe"
      ],
      [
        "ang",
        "er"
      ],
      [
        "resp",
        "ond"
      ],
      [
        "nat",
        "ure"
      ],
      [
        "a",
        "de"
      ],
      [
        "a",
        "way"
      ],
      [
        "c",
        "our"
      ],
      [
        "d",
        "ro"
      ],
      [
        "d",
        "if"
      ],
      [
        "f",
        "un"
      ],
      [
        "h",
        "il"
      ],
      [
        "m",
        "id"
      ],
      [
        "p",
        "ath"
      ],
      [
        "t",
        "wo"
      ],
      [
        "in",
        "ter"
      ],
      [
        "re",
        "g"
      ],
      [
        "st",
        "op"
      ],
      [
        "as",
        "k"
      ],
      [
        "de",
        "ter"
      ],
      [
        "be",
        "lie"
      ],
      [
        "ter",
        "s"
      ],
      [
        "per",
        "i"
      ],
      [
        "power",
        "s"
      ],
      [
        "Th",
        "at"
      ],
      [
        "real",
        "ized"
      ],
      [
        "spe",
        "ed"
      ],
      [
        "spe",
        "ll"
      ],
      [
        "bo",
        "th"
      ],
      [
        "hel",
        "p"
      ],
      [
        "ph",
        "ys"
      ],
      [
        "mu",
        "ch"
      ],
      [
        "N",
        "o"
      ],
      [
        "S",
        "ud"
      ],
      [
        "T",
        "it"
      ],
      [
        "a",
        "ur"
      ],
      [
        "c",
        "at"
      ],
      [
        "f",
        "ur"
      ],
      [
        "r",
        "on"
      ],
      [
        "s",
        "un"
      ],
      [
        "s",
        "yst"
      ],
      [
        "t",
        "rem"
      ],
      [
        "v",
        "an"
      ],
      [
        "v",
        "al"
      ],
      [
        "v",
        "ine"
      ],
      [
        "x",
        "t"
      ],
      [
        "in",
        "quired"
      ],
      [
        "re",
        "t"
      ],
      [
        "ing",
        "ly"
      ],
      [
        "is",
        "on"
      ],
      [
        "le",
        "g"
      ],
      [
        "se",
        "cond"
      ],
      [
        "ut",
        "y"
      ],
      [
        "fe",
        "ct"
      ],
      [
        "iz",
        "e"
      ],
      [
        "act",
        "ion"
      ],
      [
        "ren",
        "t"
      ],
      [
        "ort",
        "al"
      ],
      [
        "enc",
        "y"
      ],
      [
        "----",
        "----"
      ],
      [
        "uth",
        "ority"
      ],
      [
        "cer",
        "tain"
      ],
      [
        "pos",
        "sess"
      ],
      [
        "King",
        "dom"
      ],
      [
        "Sud",
        "denly"
      ],
      [
        "syst",
        "em"
      ],
      [
        "!",
        "”"
      ],
      [
        "b",
        "al"
      ],
      [
        "e",
        "ld"
      ],
      [
        "f",
        "ar"
      ],
      [
        "m",
        "ortal"
      ],
      [
        "o",
        "c"
      ],
      [
        "p",
        "a"
      ],
      [
        "p",
        "ar"
      ],
      [
        "u",
        "de"
      ],
      [
        "w",
        "at"
      ],
      [
        "w",
        "hel"
      ],
      [
        "in",
        "ess"
      ],
      [
        "re",
        "am"
      ],
      [
        "st",
        "ri"
      ],
      [
        "to",
        "ry"
      ],
      [
        "de",
        "c"
      ],
      [
        "with",
        "out"
      ],
      [
        "for",
        "ward"
      ],
      [
        "we",
        "en"
      ],
      [
        "em",
        "p"
      ],
      [
        "po",
        "ss"
      ],
      [
        "led",
        "ge"
      ],
      [
        "way",
        "s"
      ],
      [
        "tur",
        "n"
      ],
      [
        "sm",
        "ile"
      ],
      [
        "any",
        "thing"
      ],
      [
        "ta",
        "ke"
      ],
      [
        "stru",
        "ction"
      ],
      [
        "ga",
        "ze"
      ],
      [
        "ear",
        "s"
      ],
      [
        "ni",
        "hil"
      ],
      [
        "cast",
        "le"
      ],
      [
        "Be",
        "fore"
      ],
      [
        "bet",
        "ween"
      ],
      [
        "aur",
        "a"
      ],
      [
        "a",
        "king"
      ],
      [
        "f",
        "u"
      ],
      [
        "g",
        "ing"
      ],
      [
        "i",
        "ld"
      ],
      [
        "p",
        "un"
      ],
      [
        "r",
        "ad"
      ],
      [
        "s",
        "or"
      ],
      [
        "s",
        "ac"
      ],
      [
        "s",
        "ight"
      ],
      [
        "s",
        "imp"
      ],
      [
        "u",
        "red"
      ],
      [
        "w",
        "on"
      ],
      [
        "he",
        "ard"
      ],
      [
        "me",
        "t"
      ],
      [
        "ow",
        "ing"
      ],
      [
        "for",
        "t"
      ],
      [
        "so",
        "l"
      ],
      [
        "so",
        "ld"
      ],
      [
        "po",
        "se"
      ],
      [
        "com",
        "ple"
      ],
      [
        "str",
        "ong"
      ],
      [
        "up",
        "on"
      ],
      [
        "rem",
        "ind"
      ],
      [
        "over",
        "whel"
      ],
      [
        "real",
        "ity"
      ],
      [
        "ig",
        "n"
      ],
      [
        "di",
        "vine"
      ],
      [
        "dr",
        "agon"
      ],
      [
        "hap",
        "s"
      ],
      [
        "vis",
        "ion"
      ],
      [
        "hal",
        "f"
      ],
      [
        "abil",
        "ity"
      ],
      [
        "swi",
        "ft"
      ],
      [
        "sil",
        "ence"
      ],
      [
        "sud",
        "denly"
      ],
      [
        "*",
        "*"
      ],
      [
        "F",
        "or"
      ],
      [
        "b",
        "la"
      ],
      [
        "c",
        "as"
      ],
      [
        "c",
        "ir"
      ],
      [
        "c",
        "ul"
      ],
      [
        "j",
        "o"
      ],
      [
        "k",
        "es"
      ],
      [
        "s",
        "ound"
      ],
      [
        "t",
        "ou"
      ],
      [
        "w",
        "r"
      ],
      [
        "re",
        "as"
      ],
      [
        "ing",
        "s"
      ],
      [
        "en",
        "er"
      ],
      [
        "al",
        "th"
      ],
      [
        "al",
        "ways"
      ],
      [
        "le",
        "s"
      ],
      [
        "le",
        "aving"
      ],
      [
        "de",
        "ad"
      ],
      [
        "un",
        "ti"
      ],
      [
        "ag",
        "ed"
      ],
      [
        "pe",
        "ct"
      ],
      [
        "em",
        "pt"
      ],
      [
        "il",
        "ed"
      ],
      [
        "il",
        "li"
      ],
      [
        "ma",
        "ke"
      ],
      [
        "ant",
        "ly"
      ],
      [
        "str",
        "on"
      ],
      [
        "op",
        "en"
      ],
      [
        "si",
        "ve"
      ],
      [
        "att",
        "ack"
      ],
      [
        "fo",
        "llow"
      ],
      [
        "loo",
        "king"
      ],
      [
        "sk",
        "y"
      ],
      [
        "vamp",
        "ires"
      ],
      [
        "call",
        "ed"
      ],
      [
        "contro",
        "l"
      ],
      [
        "unti",
        "l"
      ],
      [
        "D",
        "es"
      ],
      [
        "b",
        "ro"
      ],
      [
        "e",
        "ach"
      ],
      [
        "f",
        "am"
      ],
      [
        "k",
        "ill"
      ],
      [
        "s",
        "la"
      ],
      [
        "w",
        "er"
      ],
      [
        "z",
        "ed"
      ],
      [
        "in",
        "side"
      ],
      [
        "al",
        "most"
      ],
      [
        "me",
        "an"
      ],
      [
        "ce",
        "ss"
      ],
      [
        "ow",
        "ed"
      ],
      [
        "be",
        "st"
      ],
      [
        "ac",
        "tiv"
      ],
      [
        "ke",
        "t"
      ],
      [
        "fe",
        "ar"
      ],
      [
        "so",
        "on"
      ],
      [
        "ate",
        "ly"
      ],
      [
        "qu",
        "e"
      ],
      [
        "com",
        "ing"
      ],
      [
        "ant",
        "s"
      ],
      [
        "sp",
        "ace"
      ],
      [
        "ra",
        "ther"
      ],
      [
        "ush",
        "ing"
      ],
      [
        "every",
        "thing"
      ],
      [
        "..",
        "."
      ],
      [
        "quest",
        "ion"
      ],
      [
        "rad",
        "i"
      ],
      [
        "c",
        "u"
      ],
      [
        "c",
        "y"
      ],
      [
        "d",
        "u"
      ],
      [
        "f",
        "a"
      ],
      [
        "g",
        "i"
      ],
      [
        "h",
        "um"
      ],
      [
        "i",
        "er"
      ],
      [
        "i",
        "os"
      ],
      [
        "l",
        "ord"
      ],
      [
        "m",
        "er"
      ],
      [
        "m",
        "ar"
      ],
      [
        "m",
        "al"
      ],
      [
        "s",
        "at"
      ],
      [
        "t",
        "ion"
      ],
      [
        "u",
        "ly"
      ],
      [
        "v",
        "ic"
      ],
      [
        "y",
        "al"
      ],
      [
        "re",
        "in"
      ],
      [
        "re",
        "ached"
      ],
      [
        "or",
        "s"
      ],
      [
        "or",
        "y"
      ],
      [
        "it",
        "ed"
      ],
      [
        "de",
        "p"
      ],
      [
        "de",
        "sp"
      ],
      [
        "de",
        "ser"
      ],
      [
        "ch",
        "ar"
      ],
      [
        "un",
        "g"
      ],
      [
        "ver",
        "s"
      ],
      [
        "sh",
        "if"
      ],
      [
        "wh",
        "is"
      ],
      [
        "ri",
        "m"
      ],
      [
        "res",
        "on"
      ],
      [
        "lo",
        "g"
      ],
      [
        "am",
        "ent"
      ],
      [
        "tr",
        "uly"
      ],
      [
        "sa",
        "y"
      ],
      [
        "ma",
        "y"
      ],
      [
        "bl",
        "ue"
      ],
      [
        "do",
        "es"
      ],
      [
        "ord",
        "in"
      ],
      [
        "know",
        "ledge"
      ],
      [
        "bar",
        "ri"
      ],
      [
        "dif",
        "fe"
      ],
      [
        "simp",
        "ly"
      ],
      [
        "ener",
        "gy"
      ],
      [
        "ios",
        "ity"
      ],
      [
        "1",
        "2"
      ],
      [
        "A",
        "ll"
      ],
      [
        "T",
        "o"
      ],
      [
        "a",
        "ve"
      ],
      [
        "a",
        "we"
      ],
      [
        "a",
        "uthority"
      ],
      [
        "b",
        "ound"
      ],
      [
        "b",
        "ene"
      ],
      [
        "f",
        "ing"
      ],
      [
        "f",
        "le"
      ],
      [
        "g",
        "ate"
      ],
      [
        "g",
        "ot"
      ],
      [
        "h",
        "op"
      ],
      [
        "m",
        "is"
      ],
      [
        "p",
        "on"
      ],
      [
        "p",
        "ain"
      ],
      [
        "s",
        "ent"
      ],
      [
        "s",
        "im"
      ],
      [
        "u",
        "g"
      ],
      [
        "re",
        "mem"
      ],
      [
        "en",
        "se"
      ],
      [
        "st",
        "ead"
      ],
      [
        "al",
        "ity"
      ],
      [
        "le",
        "ast"
      ],
      [
        "ow",
        "s"
      ],
      [
        "de",
        "cla"
      ],
      [
        "ve",
        "lo"
      ],
      [
        "ll",
        "ing"
      ],
      [
        "ic",
        "ally"
      ],
      [
        "ut",
        "e"
      ],
      [
        "ac",
        "ross"
      ],
      [
        "id",
        "ed"
      ],
      [
        "we",
        "ap"
      ],
      [
        "sh",
        "o"
      ],
      [
        "The",
        "re"
      ],
      [
        "con",
        "ne"
      ],
      [
        "tr",
        "an"
      ],
      [
        "qu",
        "ick"
      ],
      [
        "pre",
        "h"
      ],
      [
        "ci",
        "ent"
      ],
      [
        "arch",
        "y"
      ],
      [
        "abil",
        "ities"
      ],
      [
        "step",
        "ped"
      ],
      [
        "appro",
        "ached"
      ],
      [
        "set",
        "t"
      ],
      [
        "fig",
        "ure"
      ],
      [
        "fur",
        "ther"
      ],
      [
        "nihil",
        "ation"
      ],
      [
        "decla",
        "red"
      ],
      [
        "A",
        "r"
      ],
      [
        "H",
        "o"
      ],
      [
        "K",
        "o"
      ],
      [
        "O",
        "h"
      ],
      [
        "W",
        "it"
      ],
      [
        "Y",
        "our"
      ],
      [
        "a",
        "ke"
      ],
      [
        "b",
        "as"
      ],
      [
        "d",
        "ou"
      ],
      [
        "e",
        "lf"
      ],
      [
        "f",
        "li"
      ],
      [
        "i",
        "ed"
      ],
      [
        "i",
        "ly"
      ],
      [
        "j",
        "our"
      ],
      [
        "k",
        "at"
      ],
      [
        "t",
        "re"
      ],
      [
        "t",
        "em"
      ],
      [
        "w",
        "al"
      ],
      [
        "w",
        "ent"
      ],
      [
        "in",
        "tr"
      ],
      [
        "is",
        "ed"
      ],
      [
        "se",
        "l"
      ],
      [
        "se",
        "en"
      ],
      [
        "de",
        "red"
      ],
      [
        "om",
        "ed"
      ],
      [
        "ent",
        "ion"
      ],
      [
        "es",
        "cap"
      ],
      [
        "sh",
        "at"
      ],
      [
        "sh",
        "ad"
      ],
      [
        "sh",
        "out"
      ],
      [
        "ke",
        "ep"
      ],
      [
        "ne",
        "xt"
      ],
      [
        "ex",
        "ud"
      ],
      [
        "wor",
        "k"
      ],
      [
        "tr",
        "ap"
      ],
      [
        "tr",
        "uth"
      ],
      [
        "our",
        "ce"
      ],
      [
        "time",
        "s"
      ],
      [
        "real",
        "m"
      ],
      [
        "An",
        "nihilation"
      ],
      [
        "Wh",
        "y"
      ],
      [
        "car",
        "n"
      ],
      [
        "sk",
        "ill"
      ],
      [
        "need",
        "ed"
      ],
      [
        "fre",
        "qu"
      ],
      [
        "thin",
        "k"
      ],
      [
        "sig",
        "n"
      ],
      [
        "pot",
        "ent"
      ],
      [
        "barri",
        "er"
      ],
      [
        "Ko",
        "ss"
      ],
      [
        "intr",
        "ic"
      ],
      [
        "1",
        "0"
      ],
      [
        "S",
        "e"
      ],
      [
        "S",
        "ir"
      ],
      [
        "S",
        "ana"
      ],
      [
        "U",
        "n"
      ],
      [
        "f",
        "ic"
      ],
      [
        "g",
        "ive"
      ],
      [
        "h",
        "ur"
      ],
      [
        "i",
        "an"
      ],
      [
        "j",
        "um"
      ],
      [
        "k",
        "ne"
      ],
      [
        "n",
        "ight"
      ],
      [
        "p",
        "s"
      ],
      [
        "p",
        "at"
      ],
      [
        "p",
        "ur"
      ],
      [
        "r",
        "u"
      ],
      [
        "s",
        "n"
      ],
      [
        "s",
        "ou"
      ],
      [
        "s",
        "ir"
      ],
      [
        "s",
        "po"
      ],
      [
        "v",
        "ast"
      ],
      [
        "re",
        "l"
      ],
      [
        "re",
        "ach"
      ],
      [
        "ou",
        "d"
      ],
      [
        "st",
        "ret"
      ],
      [
        "ar",
        "ted"
      ],
      [
        "al",
        "yst"
      ],
      [
        "de",
        "sc"
      ],
      [
        "ch",
        "air"
      ],
      [
        "ent",
        "archy"
      ],
      [
        "ri",
        "ed"
      ],
      [
        "con",
        "cept"
      ],
      [
        "pe",
        "ace"
      ],
      [
        "ain",
        "t"
      ],
      [
        "il",
        "ity"
      ],
      [
        "ter",
        "n"
      ],
      [
        "sa",
        "me"
      ],
      [
        "are",
        "ly"
      ],
      [
        "ul",
        "ti"
      ],
      [
        "com",
        "preh"
      ],
      [
        "te",
        "le"
      ],
      [
        "per",
        "haps"
      ],
      [
        "op",
        "ened"
      ],
      [
        "sp",
        "ir"
      ],
      [
        "bl",
        "ed"
      ],
      [
        "co",
        "l"
      ],
      [
        "sur",
        "pr"
      ],
      [
        "pre",
        "p"
      ],
      [
        "vi",
        "e"
      ],
      [
        "pr",
        "ison"
      ],
      [
        "ra",
        "w"
      ],
      [
        "being",
        "s"
      ],
      [
        "sit",
        "ion"
      ],
      [
        "off",
        "er"
      ],
      [
        "cla",
        "imed"
      ],
      [
        "bre",
        "ath"
      ],
      [
        "exp",
        "an"
      ],
      [
        "exp",
        "lo"
      ],
      [
        "thre",
        "at"
      ],
      [
        "sin",
        "ce"
      ],
      [
        "ye",
        "lled"
      ],
      [
        "bal",
        "ance"
      ],
      [
        "overwhel",
        "ming"
      ],
      [
        "rein",
        "carn"
      ],
      [
        "kat",
        "ana"
      ],
      [
        "shout",
        "ed"
      ],
      [
        "M",
        "agic"
      ],
      [
        "P",
        "O"
      ],
      [
        "c",
        "il"
      ],
      [
        "d",
        "ri"
      ],
      [
        "d",
        "ict"
      ],
      [
        "f",
        "la"
      ],
      [
        "f",
        "ire"
      ],
      [
        "g",
        "g"
      ],
      [
        "g",
        "ood"
      ],
      [
        "i",
        "vid"
      ],
      [
        "l",
        "ine"
      ],
      [
        "m",
        "ulti"
      ],
      [
        "p",
        "ite"
      ],
      [
        "r",
        "ow"
      ],
      [
        "r",
        "ic"
      ],
      [
        "u",
        "ally"
      ],
      [
        "in",
        "ct"
      ],
      [
        "an",
        "cient"
      ],
      [
        "on",
        "es"
      ],
      [
        "at",
        "es"
      ],
      [
        "ar",
        "s"
      ],
      [
        "al",
        "ready"
      ],
      [
        "it",
        "ion"
      ],
      [
        "le",
        "ad"
      ],
      [
        "ir",
        "on"
      ],
      [
        "ac",
        "ing"
      ],
      [
        "sh",
        "ip"
      ],
      [
        "su",
        "b"
      ],
      [
        "ap",
        "e"
      ],
      [
        "man",
        "ip"
      ],
      [
        "ate",
        "ver"
      ],
      [
        "had",
        "n"
      ],
      [
        "ex",
        "pres"
      ],
      [
        "tr",
        "ue"
      ],
      [
        "po",
        "int"
      ],
      [
        "po",
        "lit"
      ],
      [
        "if",
        "ic"
      ],
      [
        "ind",
        "ivid"
      ],
      [
        "ul",
        "t"
      ],
      [
        "per",
        "fect"
      ],
      [
        "power",
        "ful"
      ],
      [
        "co",
        "ll"
      ],
      [
        "rem",
        "ained"
      ],
      [
        "new",
        "found"
      ],
      [
        "ment",
        "s"
      ],
      [
        "cre",
        "ate"
      ],
      [
        "mat",
        "ter"
      ],
      [
        "stru",
        "ck"
      ],
      [
        "under",
        "stand"
      ],
      [
        "wall",
        "s"
      ],
      [
        "enc",
        "oun"
      ],
      [
        "min",
        "ation"
      ],
      [
        "med",
        "i"
      ],
      [
        "feel",
        "ing"
      ],
      [
        "thre",
        "e"
      ],
      [
        "wa",
        "iting"
      ],
      [
        "na",
        "me"
      ],
      [
        "deter",
        "mination"
      ],
      [
        "cat",
        "alyst"
      ],
      [
        "sac",
        "rif"
      ],
      [
        "reas",
        "on"
      ],
      [
        "stron",
        "gest"
      ],
      [
        "Des",
        "pite"
      ],
      [
        "fam",
        "ili"
      ],
      [
        "ordin",
        "ary"
      ],
      [
        "diffe",
        "rent"
      ],
      [
        "hop",
        "ing"
      ],
      [
        "Wit",
        "ch"
      ],
      [
        "expan",
        "se"
      ],
      [
        "manip",
        "ul"
      ],
      [
        ",",
        "’"
      ],
      [
        "N",
        "ow"
      ],
      [
        "P",
        "er"
      ],
      [
        "c",
        "old"
      ],
      [
        "d",
        "res"
      ],
      [
        "d",
        "ue"
      ],
      [
        "g",
        "ent"
      ],
      [
        "g",
        "ift"
      ],
      [
        "h",
        "y"
      ],
      [
        "h",
        "or"
      ],
      [
        "i",
        "b"
      ],
      [
        "m",
        "ist"
      ],
      [
        "n",
        "er"
      ],
      [
        "o",
        "k"
      ],
      [
        "r",
        "up"
      ],
      [
        "s",
        "id"
      ],
      [
        "s",
        "ource"
      ],
      [
        "t",
        "al"
      ],
      [
        "u",
        "gh"
      ],
      [
        "v",
        "it"
      ],
      [
        "in",
        "ation"
      ],
      [
        "in",
        "dex"
      ],
      [
        "re",
        "turn"
      ],
      [
        "en",
        "g"
      ],
      [
        "en",
        "ig"
      ],
      [
        "as",
        "ed"
      ],
      [
        "he",
        "alth"
      ],
      [
        "me",
        "as"
      ],
      [
        "le",
        "ct"
      ],
      [
        "se",
        "s"
      ],
      [
        "ch",
        "allen"
      ],
      [
        "ut",
        "tered"
      ],
      [
        "ir",
        "d"
      ],
      [
        "sh",
        "all"
      ],
      [
        "wh",
        "atever"
      ],
      [
        "la",
        "ugh"
      ],
      [
        "fe",
        "w"
      ],
      [
        "res",
        "ol"
      ],
      [
        "pe",
        "red"
      ],
      [
        "wor",
        "d"
      ],
      [
        "ge",
        "ther"
      ],
      [
        "tr",
        "ans"
      ],
      [
        "ma",
        "kes"
      ],
      [
        "ha",
        "ir"
      ],
      [
        "gr",
[...]
